{
  "word_to_id": {
    "\t": 1,
    "\n": 2,
    " ": 3,
    "&": 4,
    "(": 5,
    ")": 6,
    "*": 7,
    "+": 8,
    ",": 9,
    "-": 10,
    ".": 11,
    "/": 12,
    "0": 13,
    "0.1": 14,
    "00": 15,
    "05": 16,
    "07": 17,
    "08": 18,
    "09": 19,
    "1": 20,
    "1.5": 21,
    "1.68": 22,
    "10": 23,
    "100": 24,
    "100%": 25,
    "1000": 26,
    "10cc": 27,
    "11": 28,
    "110": 29,
    "12": 30,
    "120": 31,
    "120ml": 32,
    "12g": 33,
    "13": 34,
    "14": 35,
    "140": 36,
    "15": 37,
    "150": 38,
    "1500": 39,
    "150c": 40,
    "150g": 41,
    "150ppm": 42,
    "1550": 43,
    "15g": 44,
    "16": 45,
    "160": 46,
    "160c": 47,
    "16g": 48,
    "17": 49,
    "18": 50,
    "1800": 51,
    "180cc": 52,
    "180ml": 53,
    "18g": 54,
    "1Zpresso": 55,
    "1g": 56,
    "2": 57,
    "2.45": 58,
    "2.5": 59,
    "20": 60,
    "200": 61,
    "2000": 62,
    "2007": 63,
    "2008": 64,
    "200ml": 65,
    "2012": 66,
    "2016": 67,
    "2017": 68,
    "2019": 69,
    "2022": 70,
    "2023": 71,
    "2024": 72,
    "2025": 73,
    "20g": 74,
    "24": 75,
    "240": 76,
    "240ml": 77,
    "25": 78,
    "250": 79,
    "250g": 80,
    "250ppm": 81,
    "27": 82,
    "28": 83,
    "3": 84,
    "3.5": 85,
    "30": 86,
    "300": 87,
    "300c": 88,
    "300ml": 89,
    "30g": 90,
    "320c": 91,
    "35": 92,
    "36g": 93,
    "3mins": 94,
    "4": 95,
    "40": 96,
    "40%": 97,
    "40.1": 98,
    "400": 99,
    "4000": 100,
    "40ml": 101,
    "45": 102,
    "4500": 103,
    "48": 104,
    "5": 105,
    "50": 106,
    "50ml": 107,
    "50ppm": 108,
    "6": 109,
    "60": 110,
    "60%": 111,
    "6000": 112,
    "60ml": 113,
    "68": 114,
    "68.6": 115,
    "7": 116,
    "700": 117,
    "7000": 118,
    "70ml": 119,
    "8": 120,
    "80": 121,
    "82": 122,
    "85": 123,
    "86": 124,
    "88": 125,
    "9": 126,
    "90": 127,
    "91": 128,
    "92": 129,
    "93": 130,
    "94": 131,
    "95": 132,
    "96": 133,
    "98": 134,
    "98%": 135,
    "99": 136,
    "9bar": 137,
    ":": 138,
    "<": 139,
    "=": 140,
    ">": 141,
    "?": 142,
    "A": 143,
    "A3": 144,
    "A4": 145,
    "A5": 146,
    "AI": 147,
    "ALL": 148,
    "AeroPress": 149,
    "Aeropress": 150,
    "Aquacode": 151,
    "B": 152,
    "BWT": 153,
    "Baking": 154,
    "Barista": 155,
    "Bed": 156,
    "Bialetti": 157,
    "Bicarbonate": 158,
    "Bitter": 159,
    "Bloom": 160,
    "Blooming": 161,
    "Bodum": 162,
    "Body": 163,
    "Brew": 164,
    "Brewer": 165,
    "Brewers": 166,
    "Buffer": 167,
    "C": 168,
    "CO": 169,
    "COFFEE": 170,
    "CP": 171,
    "Calcium": 172,
    "Cappuccino": 173,
    "Capsule": 174,
    "Channeling": 175,
    "Chemex": 176,
    "Clever": 177,
    "Co": 178,
    "Coffee": 179,
    "CoffeeRoast": 180,
    "Cold": 181,
    "Contents": 182,
    "Crema": 183,
    "Cup": 184,
    "Cupping": 185,
    "DIY": 186,
    "Dark": 187,
    "Dialing": 188,
    "Diffusion": 189,
    "Dissolution": 190,
    "Distribution": 191,
    "Drip": 192,
    "Dripper": 193,
    "Editorial": 194,
    "Epsom": 195,
    "Espresso": 196,
    "EspressoGC": 197,
    "FAQ": 198,
    "Femobook": 199,
    "Filter": 200,
    "Fine": 201,
    "Flat": 202,
    "Freeze": 203,
    "French": 204,
    "FrenchPress": 205,
    "Fuelwood": 206,
    "Geek": 207,
    "Geisha": 208,
    "Grind": 209,
    "Hario": 210,
    "Hoffmann": 211,
    "Hustle": 212,
    "Hybrid": 213,
    "Ice": 214,
    "Immersion": 215,
    "Inverted": 216,
    "J": 217,
    "James": 218,
    "Java": 219,
    "JavaPresse": 220,
    "Jimseven": 221,
    "K": 222,
    "KINTO": 223,
    "KO": 224,
    "Kalita": 225,
    "Kallita": 226,
    "Kasuya": 227,
    "Kona": 228,
    "Latte": 229,
    "Light": 230,
    "Machine": 231,
    "Magnesium": 232,
    "Mass": 233,
    "Matt": 234,
    "May": 235,
    "Melior": 236,
    "Mellita": 237,
    "Mile": 238,
    "Moka": 239,
    "NO": 240,
    "Over": 241,
    "Percolation": 242,
    "Perger": 243,
    "Picture": 244,
    "Pot": 245,
    "Pour": 246,
    "Press": 247,
    "Pressure": 248,
    "Q1": 249,
    "Q2": 250,
    "Q3": 251,
    "Q4": 252,
    "RO": 253,
    "ROK": 254,
    "Roast": 255,
    "Roasters": 256,
    "S": 257,
    "SCA": 258,
    "SCS": 259,
    "SLOW": 260,
    "STYLE": 261,
    "Salt": 262,
    "Siphon": 263,
    "Size": 264,
    "Soda": 265,
    "Sour": 266,
    "Space": 267,
    "Spray": 268,
    "Square": 269,
    "Swirl": 270,
    "Syphon": 271,
    "TDS": 272,
    "Tamping": 273,
    "Team": 274,
    "Technique": 275,
    "Temperature": 276,
    "Tetsu": 277,
    "Thermal": 278,
    "Third": 279,
    "Tips": 280,
    "Turbulence": 281,
    "Turkish": 282,
    "Ultimate": 283,
    "Ultra": 284,
    "Under": 285,
    "V60": 286,
    "Vacuum": 287,
    "WBC": 288,
    "WBrC": 289,
    "Water": 290,
    "Wave": 291,
    "Wetting": 292,
    "World": 293,
    "Yama": 294,
    "YouTube": 295,
    "Z": 296,
    "ZP6": 297,
    "[": 298,
    "]": 299,
    "a": 300,
    "aeropress": 301,
    "agitation": 302,
    "b": 303,
    "bar": 304,
    "bed": 305,
    "bloom": 306,
    "brew": 307,
    "brewer": 308,
    "brewing": 309,
    "c": 310,
    "cezve": 311,
    "coffee": 312,
    "cold": 313,
    "crema": 314,
    "device": 315,
    "drying": 316,
    "espresso": 317,
    "extraction": 318,
    "flatness": 319,
    "g": 320,
    "gas": 321,
    "ibrik": 322,
    "icoffee": 323,
    "in": 324,
    "ipa": 325,
    "java": 326,
    "machine": 327,
    "method": 328,
    "mins": 329,
    "nitro": 330,
    "of": 331,
    "over": 332,
    "pour": 333,
    "ppm": 334,
    "press": 335,
    "stove": 336,
    "vs": 337,
    "|": 338,
    "~": 339,
    "°": 340,
    "̅": 341,
    "​": 342,
    "–": 343,
    "—": 344,
    "“": 345,
    "”": 346,
    "₂": 347,
    "℃": 348,
    "→": 349,
    "─": 350,
    "◎": 351,
    "★": 352,
    "☆": 353,
    "✨": 354,
    "　": 355,
    "、": 356,
    "。": 357,
    "《": 358,
    "》": 359,
    "「": 360,
    "」": 361,
    "【": 362,
    "】": 363,
    "の": 364,
    "ㄛ": 365,
    "一": 366,
    "一下": 367,
    "一些": 368,
    "一份": 369,
    "一位": 370,
    "一來": 371,
    "一個": 372,
    "一個則": 373,
    "一個圓": 374,
    "一個壺": 375,
    "一倍": 376,
    "一側": 377,
    "一兩杯": 378,
    "一刀": 379,
    "一分": 380,
    "一切": 381,
    "一包": 382,
    "一匙": 383,
    "一半": 384,
    "一台": 385,
    "一同": 386,
    "一品": 387,
    "一場": 388,
    "一塊": 389,
    "一壺": 390,
    "一大": 391,
    "一天": 392,
    "一套": 393,
    "一定": 394,
    "一小": 395,
    "一小包": 396,
    "一層": 397,
    "一張": 398,
    "一手": 399,
    "一抹": 400,
    "一支": 401,
    "一整天": 402,
    "一旦": 403,
    "一杯": 404,
    "一柱": 405,
    "一根": 406,
    "一桶": 407,
    "一條": 408,
    "一樣": 409,
    "一次": 410,
    "一次性": 411,
    "一款": 412,
    "一步": 413,
    "一步步": 414,
    "一段": 415,
    "一注": 416,
    "一派": 417,
    "一滴": 418,
    "一滴水": 419,
    "一環": 420,
    "一瓶": 421,
    "一直": 422,
    "一種": 423,
    "一窺其": 424,
    "一筆": 425,
    "一篇": 426,
    "一粒": 427,
    "一致": 428,
    "一致性": 429,
    "一般": 430,
    "一般而言": 431,
    "一貫": 432,
    "一起": 433,
    "一路": 434,
    "一蹴可": 435,
    "一道": 436,
    "一達": 437,
    "一邊": 438,
    "一門": 439,
    "一開": 440,
    "一開始": 441,
    "一陣子": 442,
    "一項": 443,
    "一顆": 444,
    "一題": 445,
    "一香": 446,
    "一體化": 447,
    "一點": 448,
    "一點則": 449,
    "一點給": 450,
    "丁烷": 451,
    "七": 452,
    "三": 453,
    "三個": 454,
    "三合一": 455,
    "三大": 456,
    "三次": 457,
    "三段": 458,
    "三段式": 459,
    "三種": 460,
    "三階段": 461,
    "上": 462,
    "上下": 463,
    "上並": 464,
    "上則": 465,
    "上升": 466,
    "上壺": 467,
    "上層": 468,
    "上方": 469,
    "上會": 470,
    "上次": 471,
    "上流": 472,
    "上班族": 473,
    "上述": 474,
    "上部": 475,
    "下": 476,
    "下來": 477,
    "下列": 478,
    "下午": 479,
    "下午茶": 480,
    "下壓": 481,
    "下壺": 482,
    "下壺則": 483,
    "下層": 484,
    "下循環": 485,
    "下推": 486,
    "下方": 487,
    "下次": 488,
    "下滑": 489,
    "下濾網": 490,
    "下邊": 491,
    "下部": 492,
    "下降": 493,
    "下面": 494,
    "不": 495,
    "不一樣": 496,
    "不一致性": 497,
    "不中斷": 498,
    "不但": 499,
    "不佳": 500,
    "不便": 501,
    "不僅": 502,
    "不先": 503,
    "不再": 504,
    "不出": 505,
    "不到": 506,
    "不及": 507,
    "不受": 508,
    "不可": 509,
    "不可或缺": 510,
    "不同": 511,
    "不啻": 512,
    "不單": 513,
    "不均": 514,
    "不夠": 515,
    "不太膨脹": 516,
    "不失": 517,
    "不好": 518,
    "不如": 519,
    "不妨": 520,
    "不寫": 521,
    "不少": 522,
    "不帶": 523,
    "不建議": 524,
    "不必": 525,
    "不必要": 526,
    "不急不徐": 527,
    "不想": 528,
    "不敗款": 529,
    "不新鮮": 530,
    "不斷": 531,
    "不斷畫": 532,
    "不明": 533,
    "不易": 534,
    "不是": 535,
    "不時": 536,
    "不會": 537,
    "不會壞": 538,
    "不浸": 539,
    "不準": 540,
    "不用": 541,
    "不知": 542,
    "不確": 543,
    "不穩": 544,
    "不管": 545,
    "不絕": 546,
    "不經": 547,
    "不織": 548,
    "不習": 549,
    "不肖": 550,
    "不能": 551,
    "不良": 552,
    "不若手": 553,
    "不要": 554,
    "不討喜": 555,
    "不該": 556,
    "不論": 557,
    "不費力": 558,
    "不超過": 559,
    "不足": 560,
    "不過": 561,
    "不酸": 562,
    "不銹鋼": 563,
    "不錯": 564,
    "不間": 565,
    "不離": 566,
    "不需": 567,
    "且": 568,
    "且務必": 569,
    "且顆": 570,
    "世代": 571,
    "世界": 572,
    "並": 573,
    "並不": 574,
    "並不建議": 575,
    "並不會": 576,
    "並且": 577,
    "並以": 578,
    "並促": 579,
    "並分": 580,
    "並勤加": 581,
    "並可": 582,
    "並向": 583,
    "並因": 584,
    "並在": 585,
    "並均": 586,
    "並將": 587,
    "並帶": 588,
    "並從": 589,
    "並成": 590,
    "並把": 591,
    "並按壓": 592,
    "並擁": 593,
    "並攪": 594,
    "並散": 595,
    "並時": 596,
    "並有": 597,
    "並根據": 598,
    "並沒有": 599,
    "並減": 600,
    "並準備": 601,
    "並溫熱": 602,
    "並煮": 603,
    "並獲": 604,
    "並產生": 605,
    "並用熱": 606,
    "並盡快": 607,
    "並研發": 608,
    "並確": 609,
    "並結合": 610,
    "並要": 611,
    "並記": 612,
    "並試": 613,
    "並調整": 614,
    "並讓": 615,
    "並輕": 616,
    "並輕輕": 617,
    "並透過": 618,
    "並進入": 619,
    "並過": 620,
    "並釋": 621,
    "並重現": 622,
    "並開始": 623,
    "並非": 624,
    "並鼓勵": 625,
    "中": 626,
    "中以": 627,
    "中則": 628,
    "中南美洲": 629,
    "中南部": 630,
    "中均勻": 631,
    "中培": 632,
    "中央": 633,
    "中帶": 634,
    "中常": 635,
    "中後段": 636,
    "中心": 637,
    "中期": 638,
    "中段": 639,
    "中流": 640,
    "中深": 641,
    "中淺": 642,
    "中滿": 643,
    "中火": 644,
    "中焙則": 645,
    "中焙至": 646,
    "中焙豆": 647,
    "中產生": 648,
    "中等": 649,
    "中細": 650,
    "中經常": 651,
    "中裝入": 652,
    "中軸": 653,
    "中間": 654,
    "中顏色": 655,
    "主流": 656,
    "主要": 657,
    "主觀": 658,
    "主食": 659,
    "久": 660,
    "之": 661,
    "之一": 662,
    "之上": 663,
    "之中": 664,
    "之分": 665,
    "之前": 666,
    "之外": 667,
    "之後再": 668,
    "之後將": 669,
    "之後接": 670,
    "之後改": 671,
    "之所以": 672,
    "之放": 673,
    "之旅": 674,
    "之習慣": 675,
    "之處": 676,
    "之路": 677,
    "之過": 678,
    "之間": 679,
    "也": 680,
    "也展": 681,
    "也屬": 682,
    "也許": 683,
    "乾": 684,
    "乾時": 685,
    "乾淨": 686,
    "乾淨且": 687,
    "乾淨度": 688,
    "乾澀": 689,
    "乾燥": 690,
    "乾粉": 691,
    "乾貨": 692,
    "乾香": 693,
    "亂": 694,
    "了": 695,
    "了解": 696,
    "事": 697,
    "事先": 698,
    "事前": 699,
    "事實": 700,
    "事後稀釋": 701,
    "事變": 702,
    "事項": 703,
    "二": 704,
    "二次": 705,
    "二氧": 706,
    "二氧化碳": 707,
    "五": 708,
    "五次": 709,
    "五段": 710,
    "交代": 711,
    "交換": 712,
    "交給": 713,
    "亦": 714,
    "享受": 715,
    "享用": 716,
    "人": 717,
    "人人": 718,
    "人來": 719,
    "人們": 720,
    "人化": 721,
    "人士": 722,
    "人會": 723,
    "人為": 724,
    "人物": 725,
    "人群": 726,
    "人能": 727,
    "人體": 728,
    "什麼": 729,
    "什麼樣": 730,
    "今天": 731,
    "介紹": 732,
    "介紹僅": 733,
    "介紹常見": 734,
    "仍": 735,
    "仍然": 736,
    "仔細": 737,
    "他": 738,
    "付出": 739,
    "代表": 740,
    "代表性": 741,
    "令人": 742,
    "以": 743,
    "以上": 744,
    "以下": 745,
    "以便": 746,
    "以免": 747,
    "以其": 748,
    "以利": 749,
    "以剛": 750,
    "以及": 751,
    "以均": 752,
    "以外": 753,
    "以市": 754,
    "以常見": 755,
    "以平": 756,
    "以待": 757,
    "以手": 758,
    "以極": 759,
    "以產區": 760,
    "以畫圓": 761,
    "以當": 762,
    "以確": 763,
    "以粉": 764,
    "以繞": 765,
    "以評": 766,
    "以較": 767,
    "以適": 768,
    "以避開": 769,
    "以重": 770,
    "以電子": 771,
    "以風味": 772,
    "以點": 773,
    "仰賴": 774,
    "任何": 775,
    "任何人": 776,
    "任務": 777,
    "任意": 778,
    "份": 779,
    "份量": 780,
    "企圖": 781,
    "休息": 782,
    "估磨": 783,
    "估風味表現": 784,
    "伸而來": 785,
    "似": 786,
    "似義式": 787,
    "但": 788,
    "但別": 789,
    "但是": 790,
    "但水": 791,
    "但濾杯": 792,
    "但當": 793,
    "但要": 794,
    "但過": 795,
    "佈": 796,
    "位": 797,
    "位移": 798,
    "位置": 799,
    "低": 800,
    "低且": 801,
    "低價": 802,
    "低則": 803,
    "低擾動": 804,
    "低時": 805,
    "低水": 806,
    "低溫": 807,
    "低維護": 808,
    "低苦澀": 809,
    "低酸": 810,
    "住": 811,
    "住手": 812,
    "佔": 813,
    "何手": 814,
    "何謂": 815,
    "佛手柑": 816,
    "作": 817,
    "作出": 818,
    "作好": 819,
    "作成": 820,
    "作業": 821,
    "作為": 822,
    "作用": 823,
    "你": 824,
    "佳": 825,
    "佳的美": 826,
    "併": 827,
    "使": 828,
    "使得": 829,
    "使水": 830,
    "使濾紙": 831,
    "使用": 832,
    "使用方便": 833,
    "使用者": 834,
    "來": 835,
    "來判斷": 836,
    "來將": 837,
    "來悶": 838,
    "來杯": 839,
    "來源": 840,
    "來盛": 841,
    "來確": 842,
    "來練習": 843,
    "來裝": 844,
    "來調": 845,
    "例外": 846,
    "例如": 847,
    "侖": 848,
    "供": 849,
    "供電": 850,
    "依": 851,
    "依個": 852,
    "依序": 853,
    "依情況": 854,
    "依據": 855,
    "依然": 856,
    "依照": 857,
    "依賴用": 858,
    "依靠": 859,
    "便": 860,
    "便利": 861,
    "便利性": 862,
    "便宜": 863,
    "係": 864,
    "促成": 865,
    "促進": 866,
    "俐落": 867,
    "保": 868,
    "保存": 869,
    "保將": 870,
    "保持": 871,
    "保有": 872,
    "保母級": 873,
    "保水": 874,
    "保溫": 875,
    "保溫性": 876,
    "保留": 877,
    "保羅": 878,
    "保證": 879,
    "保護": 880,
    "保養": 881,
    "信任": 882,
    "信服": 883,
    "信譽": 884,
    "信賴": 885,
    "修正": 886,
    "個": 887,
    "個國家": 888,
    "個性": 889,
    "個產區": 890,
    "倍": 891,
    "們": 892,
    "倒": 893,
    "倒入": 894,
    "倒出": 895,
    "倒掉": 896,
    "倒水": 897,
    "倒粉": 898,
    "倒置": 899,
    "值": 900,
    "值得": 901,
    "值首選": 902,
    "假設": 903,
    "偏": 904,
    "偏向": 905,
    "偏好": 906,
    "偏愛的": 907,
    "偏水": 908,
    "偏淡": 909,
    "偏甜": 910,
    "偏細": 911,
    "偏細時": 912,
    "偏苦": 913,
    "偏酸": 914,
    "偏酸澀": 915,
    "偏重": 916,
    "偏高": 917,
    "做": 918,
    "做冰滴": 919,
    "做出": 920,
    "做到": 921,
    "做化學": 922,
    "做好": 923,
    "做成": 924,
    "做法": 925,
    "做起": 926,
    "做點": 927,
    "停": 928,
    "停止": 929,
    "停留": 930,
    "健康": 931,
    "側向": 932,
    "側邊": 933,
    "偶爾": 934,
    "偶爾想": 935,
    "偶爾會": 936,
    "備": 937,
    "備感": 938,
    "傳奇": 939,
    "傳統": 940,
    "傳遞": 941,
    "傾斜": 942,
    "僅": 943,
    "僅供": 944,
    "僅僅": 945,
    "僅由": 946,
    "僅適合": 947,
    "僅需": 948,
    "像": 949,
    "像是": 950,
    "像樣": 951,
    "價位": 952,
    "價格": 953,
    "價格大約": 954,
    "價格會": 955,
    "價錢會": 956,
    "儀式": 957,
    "儘": 958,
    "優": 959,
    "優先": 960,
    "優先級當": 961,
    "優劣": 962,
    "優勢": 963,
    "優秀": 964,
    "優缺點": 965,
    "優美": 966,
    "優良": 967,
    "優良且": 968,
    "優質": 969,
    "優雅": 970,
    "優點": 971,
    "儲存": 972,
    "元": 973,
    "元硬幣": 974,
    "元至": 975,
    "充分": 976,
    "充滿": 977,
    "充電版": 978,
    "先": 979,
    "先來": 980,
    "先倒": 981,
    "先將": 982,
    "先後順序": 983,
    "先悶": 984,
    "先浸": 985,
    "先為": 986,
    "先煮": 987,
    "先用": 988,
    "先用熱": 989,
    "先磨": 990,
    "先試": 991,
    "先釋": 992,
    "先養成": 993,
    "光滑": 994,
    "克": 995,
    "克小蘇": 996,
    "克數": 997,
    "克杯": 998,
    "克瀉": 999,
    "克熱": 1000,
    "克熱水": 1001,
    "兌入": 1002,
    "免費": 1003,
    "兑入": 1004,
    "入": 1005,
    "入坑": 1006,
    "入後不": 1007,
    "入手": 1008,
    "入門": 1009,
    "入門手": 1010,
    "入門者": 1011,
    "內": 1012,
    "內不斷": 1013,
    "內容": 1014,
    "內容免": 1015,
    "內繞": 1016,
    "內置": 1017,
    "內衝": 1018,
    "內部": 1019,
    "內附": 1020,
    "全": 1021,
    "全世界": 1022,
    "全公開": 1023,
    "全台": 1024,
    "全攻略": 1025,
    "全數": 1026,
    "全新": 1027,
    "全機": 1028,
    "全球": 1029,
    "全程": 1030,
    "全系列": 1031,
    "全能": 1032,
    "全部": 1033,
    "全面": 1034,
    "兩": 1035,
    "兩個": 1036,
    "兩倍": 1037,
    "兩到": 1038,
    "兩大": 1039,
    "兩大機種": 1040,
    "兩套": 1041,
    "兩平匙": 1042,
    "兩杯": 1043,
    "兩次": 1044,
    "兩段": 1045,
    "兩瓶法": 1046,
    "兩百萬": 1047,
    "兩種": 1048,
    "兩者": 1049,
    "兩週": 1050,
    "公克": 1051,
    "公分": 1052,
    "公升": 1053,
    "公司": 1054,
    "公室": 1055,
    "公開": 1056,
    "六": 1057,
    "六大": 1058,
    "六種": 1059,
    "共": 1060,
    "共同": 1061,
    "其": 1062,
    "其中": 1063,
    "其他": 1064,
    "其宗": 1065,
    "其實": 1066,
    "其實手": 1067,
    "其往": 1068,
    "其特點": 1069,
    "其細長": 1070,
    "其風味": 1071,
    "其餘": 1072,
    "具": 1073,
    "具備": 1074,
    "具有": 1075,
    "具觀": 1076,
    "具閥": 1077,
    "具體": 1078,
    "具高": 1079,
    "典型": 1080,
    "典雅": 1081,
    "兼備": 1082,
    "兼具": 1083,
    "兼顧": 1084,
    "再": 1085,
    "再來": 1086,
    "再壓": 1087,
    "再次": 1088,
    "再現": 1089,
    "再用": 1090,
    "再繞": 1091,
    "再調": 1092,
    "再輕": 1093,
    "再過": 1094,
    "冒": 1095,
    "冠": 1096,
    "冠軍團隊": 1097,
    "冠軍粕": 1098,
    "冠軍級": 1099,
    "冬天": 1100,
    "冰": 1101,
    "冰塊": 1102,
    "冰水": 1103,
    "冰淇淋": 1104,
    "冰滴": 1105,
    "冰球": 1106,
    "冰箱": 1107,
    "冷": 1108,
    "冷凍": 1109,
    "冷凝": 1110,
    "冷壓": 1111,
    "冷水": 1112,
    "冷泡": 1113,
    "冷縮": 1114,
    "冷萃": 1115,
    "冷藏": 1116,
    "冷釀": 1117,
    "凡是": 1118,
    "凸顯": 1119,
    "凹槽": 1120,
    "出": 1121,
    "出乎意料": 1122,
    "出乾淨": 1123,
    "出來": 1124,
    "出口": 1125,
    "出品": 1126,
    "出均": 1127,
    "出多種": 1128,
    "出大約": 1129,
    "出太多物質": 1130,
    "出層次": 1131,
    "出屬": 1132,
    "出差": 1133,
    "出手": 1134,
    "出擊": 1135,
    "出時": 1136,
    "出極致": 1137,
    "出水口": 1138,
    "出水量": 1139,
    "出無法": 1140,
    "出現": 1141,
    "出甜感": 1142,
    "出苦澀": 1143,
    "出較": 1144,
    "出過": 1145,
    "出酸質": 1146,
    "出類": 1147,
    "出風味": 1148,
    "出香氣": 1149,
    "出香濃": 1150,
    "刀盤": 1151,
    "分": 1152,
    "分享": 1153,
    "分半": 1154,
    "分半到": 1155,
    "分半鐘": 1156,
    "分子": 1157,
    "分布": 1158,
    "分成": 1159,
    "分批": 1160,
    "分散": 1161,
    "分數": 1162,
    "分明": 1163,
    "分析": 1164,
    "分次": 1165,
    "分段": 1166,
    "分滿時": 1167,
    "分為": 1168,
    "分級": 1169,
    "分裝": 1170,
    "分辨": 1171,
    "分鐘": 1172,
    "分鐘後熱量": 1173,
    "分開": 1174,
    "分離": 1175,
    "切割": 1176,
    "切記": 1177,
    "初入門": 1178,
    "初始": 1179,
    "初學": 1180,
    "初學手": 1181,
    "初學者": 1182,
    "初心": 1183,
    "初期": 1184,
    "初次": 1185,
    "初階": 1186,
    "判別": 1187,
    "判斷": 1188,
    "別": 1189,
    "利用": 1190,
    "到": 1191,
    "到底": 1192,
    "到手": 1193,
    "刺激": 1194,
    "刻度": 1195,
    "刻意": 1196,
    "則": 1197,
    "則反過": 1198,
    "則可選蜜": 1199,
    "則因": 1200,
    "則在": 1201,
    "則把": 1202,
    "則推薦": 1203,
    "則改": 1204,
    "則是": 1205,
    "則會": 1206,
    "則有": 1207,
    "則比": 1208,
    "則減": 1209,
    "則磨": 1210,
    "則能": 1211,
    "則能將": 1212,
    "則認": 1213,
    "則較": 1214,
    "則類": 1215,
    "前": 1216,
    "前提": 1217,
    "前文": 1218,
    "前會": 1219,
    "前段": 1220,
    "前述": 1221,
    "前面": 1222,
    "前體": 1223,
    "剛": 1224,
    "剛好": 1225,
    "剛接觸": 1226,
    "剛磨": 1227,
    "剛開始": 1228,
    "剩": 1229,
    "剩下": 1230,
    "剩餘": 1231,
    "副": 1232,
    "創作": 1233,
    "創新": 1234,
    "創辦": 1235,
    "創造": 1236,
    "劇烈": 1237,
    "劑": 1238,
    "力學": 1239,
    "力氣": 1240,
    "力量": 1241,
    "功效": 1242,
    "功率": 1243,
    "功用": 1244,
    "功能": 1245,
    "加": 1246,
    "加上": 1247,
    "加入": 1248,
    "加壓": 1249,
    "加壓式": 1250,
    "加水": 1251,
    "加熱": 1252,
    "加熱壺": 1253,
    "加熱產生": 1254,
    "加熱至": 1255,
    "加速": 1256,
    "助您": 1257,
    "助燃": 1258,
    "努力": 1259,
    "勁": 1260,
    "動": 1261,
    "動並": 1262,
    "動作": 1263,
    "動態": 1264,
    "動手": 1265,
    "務必": 1266,
    "勻": 1267,
    "勻且": 1268,
    "勻分": 1269,
    "勻度": 1270,
    "勻性": 1271,
    "勻抹平": 1272,
    "勻速": 1273,
    "勾好": 1274,
    "勿": 1275,
    "包": 1276,
    "包上": 1277,
    "包含": 1278,
    "包括": 1279,
    "包泡入": 1280,
    "包熱": 1281,
    "包產品": 1282,
    "包裝": 1283,
    "包裝成": 1284,
    "包裝連": 1285,
    "包裹": 1286,
    "包覆": 1287,
    "化": 1288,
    "化合物": 1289,
    "化學": 1290,
    "化學物質": 1291,
    "化工": 1292,
    "化性": 1293,
    "區": 1294,
    "區分": 1295,
    "區別": 1296,
    "區域": 1297,
    "區間": 1298,
    "十分": 1299,
    "十多": 1300,
    "十大": 1301,
    "十字": 1302,
    "十年": 1303,
    "十足": 1304,
    "千樣": 1305,
    "千篇": 1306,
    "升級": 1307,
    "半年": 1308,
    "半段": 1309,
    "卓越": 1310,
    "協會": 1311,
    "南北": 1312,
    "占": 1313,
    "占卜": 1314,
    "卡": 1315,
    "卡在": 1316,
    "卡布": 1317,
    "卡式": 1318,
    "卡豆": 1319,
    "印象": 1320,
    "危害": 1321,
    "即": 1322,
    "即使": 1323,
    "即便": 1324,
    "即可": 1325,
    "即時": 1326,
    "卻": 1327,
    "厚": 1328,
    "厚實": 1329,
    "厚度": 1330,
    "厚重": 1331,
    "原": 1332,
    "原來": 1333,
    "原則": 1334,
    "原味": 1335,
    "原因": 1336,
    "原始": 1337,
    "原料": 1338,
    "原有": 1339,
    "原理": 1340,
    "厭惡": 1341,
    "去": 1342,
    "去除": 1343,
    "參數": 1344,
    "參數供": 1345,
    "參數容": 1346,
    "參考": 1347,
    "參考值": 1348,
    "參訪": 1349,
    "又": 1350,
    "又名": 1351,
    "及": 1352,
    "及品種": 1353,
    "及材質": 1354,
    "及綿細": 1355,
    "及風味": 1356,
    "友善": 1357,
    "反之": 1358,
    "反壓法": 1359,
    "反應": 1360,
    "取": 1361,
    "取代": 1362,
    "取出": 1363,
    "取勝": 1364,
    "取合適": 1365,
    "取得": 1366,
    "取決": 1367,
    "取消": 1368,
    "取用": 1369,
    "受保護": 1370,
    "受其": 1371,
    "受到": 1372,
    "受場": 1373,
    "受潮": 1374,
    "受熱": 1375,
    "口味": 1376,
    "口徑": 1377,
    "口感": 1378,
    "古怪": 1379,
    "古老": 1380,
    "另": 1381,
    "另一方面": 1382,
    "另外": 1383,
    "只": 1384,
    "只是": 1385,
    "只有": 1386,
    "只能": 1387,
    "只要": 1388,
    "可": 1389,
    "可下壓": 1390,
    "可以": 1391,
    "可任意": 1392,
    "可供": 1393,
    "可依": 1394,
    "可依個": 1395,
    "可依習": 1396,
    "可先": 1397,
    "可先試": 1398,
    "可分": 1399,
    "可嘗": 1400,
    "可嘗試": 1401,
    "可將": 1402,
    "可幫助": 1403,
    "可想而知": 1404,
    "可控": 1405,
    "可控性": 1406,
    "可根據": 1407,
    "可溶": 1408,
    "可溶性": 1409,
    "可獲": 1410,
    "可玩性": 1411,
    "可用": 1412,
    "可移": 1413,
    "可稱": 1414,
    "可精準": 1415,
    "可納": 1416,
    "可能": 1417,
    "可能性": 1418,
    "可行": 1419,
    "可視": 1420,
    "可輕": 1421,
    "可輕柔": 1422,
    "可輕輕": 1423,
    "可透過": 1424,
    "可達": 1425,
    "可選": 1426,
    "可選擇": 1427,
    "可選錐形": 1428,
    "可重": 1429,
    "可驗證": 1430,
    "台北": 1431,
    "台南": 1432,
    "台灣": 1433,
    "吃掉": 1434,
    "各": 1435,
    "各位": 1436,
    "各個": 1437,
    "各具特色": 1438,
    "各式": 1439,
    "各有": 1440,
    "各樣": 1441,
    "各種": 1442,
    "各自": 1443,
    "各階段": 1444,
    "各項": 1445,
    "合法": 1446,
    "合用": 1447,
    "合適": 1448,
    "同": 1449,
    "同一": 1450,
    "同心": 1451,
    "同時": 1452,
    "同時將": 1453,
    "同樣": 1454,
    "同款": 1455,
    "同步": 1456,
    "同等": 1457,
    "同點": 1458,
    "名字": 1459,
    "名稱": 1460,
    "向": 1461,
    "向上": 1462,
    "向下": 1463,
    "向前": 1464,
    "向外": 1465,
    "吞下去": 1466,
    "否則": 1467,
    "吧": 1468,
    "含有": 1469,
    "含量": 1470,
    "吸回": 1471,
    "吸引": 1472,
    "吸引力": 1473,
    "吸收": 1474,
    "吸水": 1475,
    "吸附": 1476,
    "呈": 1477,
    "呈現": 1478,
    "告訴": 1479,
    "呢": 1480,
    "周圍": 1481,
    "周知": 1482,
    "味": 1483,
    "味蕾": 1484,
    "味覺": 1485,
    "味過": 1486,
    "味道": 1487,
    "命名": 1488,
    "和": 1489,
    "和諧": 1490,
    "咖": 1491,
    "咖啡": 1492,
    "咖啡因": 1493,
    "咖啡店": 1494,
    "咖啡杯": 1495,
    "咖啡粉": 1496,
    "咖啡色": 1497,
    "咖啡豆": 1498,
    "咬": 1499,
    "品": 1500,
    "品名": 1501,
    "品味": 1502,
    "品嘗到": 1503,
    "品嚐": 1504,
    "品牌": 1505,
    "品種": 1506,
    "品質": 1507,
    "品鑑": 1508,
    "品項": 1509,
    "品飲": 1510,
    "哈佛": 1511,
    "哈本": 1512,
    "哎": 1513,
    "哥倫比亞": 1514,
    "哦": 1515,
    "哪": 1516,
    "哪一種": 1517,
    "哪些": 1518,
    "哪些因素": 1519,
    "哪個": 1520,
    "哪種": 1521,
    "哪裡": 1522,
    "哲大師": 1523,
    "哲學": 1524,
    "售常見": 1525,
    "唯一": 1526,
    "商": 1527,
    "商也會": 1528,
    "商品": 1529,
    "商業級": 1530,
    "商用": 1531,
    "啊": 1532,
    "問處": 1533,
    "問題": 1534,
    "啜": 1535,
    "啜吸到": 1536,
    "啜吸時": 1537,
    "啟動": 1538,
    "啟發": 1539,
    "啡": 1540,
    "啤酒": 1541,
    "啦": 1542,
    "善用": 1543,
    "喉嚨": 1544,
    "喔": 1545,
    "喘": 1546,
    "喘口氣": 1547,
    "喚醒": 1548,
    "喜": 1549,
    "喜好": 1550,
    "喜愛": 1551,
    "喜愛強烈": 1552,
    "喜愛的": 1553,
    "喜歡": 1554,
    "喝": 1555,
    "喝一杯": 1556,
    "喝到": 1557,
    "喝咖啡": 1558,
    "喝法": 1559,
    "喝起": 1560,
    "喝進": 1561,
    "喝過": 1562,
    "喝酸": 1563,
    "喪失": 1564,
    "單": 1565,
    "單一": 1566,
    "單一產區": 1567,
    "單一變": 1568,
    "單位": 1569,
    "單向": 1570,
    "單品": 1571,
    "單寧酸": 1572,
    "單杯": 1573,
    "單純": 1574,
    "單薄": 1575,
    "單點": 1576,
    "喻戶曉": 1577,
    "嗎": 1578,
    "嘗": 1579,
    "嘗到": 1580,
    "嘗試": 1581,
    "嘴": 1582,
    "嘴處": 1583,
    "器具": 1584,
    "器材": 1585,
    "器皿": 1586,
    "噴霧": 1587,
    "嚐": 1588,
    "嚐到": 1589,
    "嚥": 1590,
    "嚴": 1591,
    "嚴格": 1592,
    "嚴格來": 1593,
    "嚴謹": 1594,
    "囉": 1595,
    "四": 1596,
    "四六": 1597,
    "四味": 1598,
    "四大": 1599,
    "四次": 1600,
    "四溢": 1601,
    "回": 1602,
    "回來": 1603,
    "回到": 1604,
    "回報": 1605,
    "回流": 1606,
    "回濾壺": 1607,
    "因": 1608,
    "因人": 1609,
    "因前": 1610,
    "因應": 1611,
    "因接觸": 1612,
    "因斷": 1613,
    "因時": 1614,
    "因極細": 1615,
    "因此": 1616,
    "因比較": 1617,
    "因水": 1618,
    "因為": 1619,
    "因為觸": 1620,
    "因素": 1621,
    "因而": 1622,
    "因輕": 1623,
    "因過度": 1624,
    "困擾": 1625,
    "困難": 1626,
    "固定": 1627,
    "固定值": 1628,
    "固定量": 1629,
    "圈": 1630,
    "國外": 1631,
    "國家": 1632,
    "國際": 1633,
    "國際賽": 1634,
    "圓": 1635,
    "圓周": 1636,
    "圓心": 1637,
    "圓潤": 1638,
    "圓繞": 1639,
    "圖": 1640,
    "圖為": 1641,
    "土耳其": 1642,
    "在": 1643,
    "在家": 1644,
    "在後續": 1645,
    "在悶": 1646,
    "在意": 1647,
    "在手": 1648,
    "地": 1649,
    "地分": 1650,
    "地區": 1651,
    "地向": 1652,
    "地圖": 1653,
    "地均": 1654,
    "地將": 1655,
    "地展": 1656,
    "地帶": 1657,
    "地常見": 1658,
    "地方": 1659,
    "地計算": 1660,
    "地調": 1661,
    "地變換": 1662,
    "地面": 1663,
    "地點": 1664,
    "均": 1665,
    "均勻": 1666,
    "均衡": 1667,
    "垂直": 1668,
    "型": 1669,
    "城市": 1670,
    "培豆": 1671,
    "基底": 1672,
    "基座": 1673,
    "基本": 1674,
    "基本上": 1675,
    "基本功": 1676,
    "基準": 1677,
    "基礎": 1678,
    "堅固": 1679,
    "堅持": 1680,
    "堅果": 1681,
    "堅硬": 1682,
    "堆疊": 1683,
    "堆疊成": 1684,
    "堆積": 1685,
    "堪稱": 1686,
    "場合": 1687,
    "場景": 1688,
    "塊": 1689,
    "塌陷": 1690,
    "塑料": 1691,
    "塑膠": 1692,
    "塞": 1693,
    "塞住": 1694,
    "塞風壺": 1695,
    "填": 1696,
    "填壓": 1697,
    "填壓器": 1698,
    "增加": 1699,
    "增添": 1700,
    "壁": 1701,
    "壓": 1702,
    "壓下": 1703,
    "壓且": 1704,
    "壓入": 1705,
    "壓力": 1706,
    "壓器": 1707,
    "壓壺": 1708,
    "壓實": 1709,
    "壓實成": 1710,
    "壓得": 1711,
    "壓桿": 1712,
    "壓濾": 1713,
    "壓濾壺": 1714,
    "壓濾網": 1715,
    "壓濾過": 1716,
    "壓熱": 1717,
    "壓產生": 1718,
    "壓筒": 1719,
    "壓網": 1720,
    "壓縮泵": 1721,
    "壞": 1722,
    "壺": 1723,
    "壺上": 1724,
    "壺中": 1725,
    "壺來": 1726,
    "壺內": 1727,
    "壺具": 1728,
    "壺到": 1729,
    "壺又稱": 1730,
    "壺口": 1731,
    "壺嘴": 1732,
    "壺型": 1733,
    "壺就": 1734,
    "壺或": 1735,
    "壺或馬克杯": 1736,
    "壺推薦": 1737,
    "壺是": 1738,
    "壺有": 1739,
    "壺杯": 1740,
    "壺沸騰": 1741,
    "壺溫度": 1742,
    "壺特點": 1743,
    "壺發": 1744,
    "壺的": 1745,
    "壺的壺": 1746,
    "壺組": 1747,
    "壺與": 1748,
    "壺裝水": 1749,
    "壺身": 1750,
    "壺透": 1751,
    "壺達": 1752,
    "夏": 1753,
    "夏天": 1754,
    "夏威夷": 1755,
    "夏季": 1756,
    "夏日": 1757,
    "外": 1758,
    "外出": 1759,
    "外圈": 1760,
    "外圍": 1761,
    "外型": 1762,
    "外層": 1763,
    "外往": 1764,
    "外畫": 1765,
    "外繞": 1766,
    "外膨脹": 1767,
    "外袋": 1768,
    "外觀": 1769,
    "外面": 1770,
    "多": 1771,
    "多一點": 1772,
    "多元": 1773,
    "多功能": 1774,
    "多功能性": 1775,
    "多半": 1776,
    "多寡": 1777,
    "多小氣": 1778,
    "多少": 1779,
    "多少度": 1780,
    "多層次": 1781,
    "多年": 1782,
    "多手": 1783,
    "多數": 1784,
    "多會": 1785,
    "多杯數": 1786,
    "多樣": 1787,
    "多樣化": 1788,
    "多次": 1789,
    "多款": 1790,
    "多段": 1791,
    "多注": 1792,
    "多物質": 1793,
    "多種": 1794,
    "多花": 1795,
    "多花費": 1796,
    "多變": 1797,
    "夢": 1798,
    "大": 1799,
    "大且": 1800,
    "大公": 1801,
    "大分子": 1802,
    "大利": 1803,
    "大力": 1804,
    "大地": 1805,
    "大多": 1806,
    "大大": 1807,
    "大大降低": 1808,
    "大好": 1809,
    "大家": 1810,
    "大小": 1811,
    "大師": 1812,
    "大幅": 1813,
    "大幅度": 1814,
    "大影響": 1815,
    "大手": 1816,
    "大概": 1817,
    "大步": 1818,
    "大氣": 1819,
    "大眾": 1820,
    "大約": 1821,
    "大綱": 1822,
    "大致": 1823,
    "大要點": 1824,
    "大變": 1825,
    "大賽": 1826,
    "大逐": 1827,
    "大部分": 1828,
    "大釋": 1829,
    "大重點": 1830,
    "大量": 1831,
    "大類": 1832,
    "天到": 1833,
    "天氣": 1834,
    "天然": 1835,
    "太": 1836,
    "太久": 1837,
    "太多": 1838,
    "太多苦": 1839,
    "太大": 1840,
    "太強": 1841,
    "太快": 1842,
    "太淡": 1843,
    "太濃": 1844,
    "太猛": 1845,
    "太粗": 1846,
    "太細": 1847,
    "太苦": 1848,
    "太薄": 1849,
    "太酸": 1850,
    "太重": 1851,
    "太長": 1852,
    "太高": 1853,
    "失去": 1854,
    "失敗": 1855,
    "失望": 1856,
    "失衡": 1857,
    "奇諾": 1858,
    "套": 1859,
    "套件": 1860,
    "奶": 1861,
    "奶油": 1862,
    "奶泡": 1863,
    "奶茶": 1864,
    "好": 1865,
    "好品質": 1866,
    "好喝": 1867,
    "好奇心": 1868,
    "好好": 1869,
    "好手": 1870,
    "好水溫": 1871,
    "好消息": 1872,
    "好淋濕": 1873,
    "好濾杯": 1874,
    "好磨": 1875,
    "好處": 1876,
    "好評": 1877,
    "如": 1878,
    "如下": 1879,
    "如今": 1880,
    "如何": 1881,
    "如冷萃": 1882,
    "如拿鐵": 1883,
    "如果": 1884,
    "如此": 1885,
    "如泥濘": 1886,
    "妙": 1887,
    "妨礙": 1888,
    "始": 1889,
    "始終": 1890,
    "始練習": 1891,
    "孔徑": 1892,
    "孔洞": 1893,
    "孔隙": 1894,
    "字": 1895,
    "字形": 1896,
    "字面上": 1897,
    "存在": 1898,
    "學": 1899,
    "學問": 1900,
    "學會": 1901,
    "學習": 1902,
    "學路線": 1903,
    "它": 1904,
    "它並": 1905,
    "它們": 1906,
    "安全": 1907,
    "安裝": 1908,
    "完": 1909,
    "完全": 1910,
    "完全相同": 1911,
    "完好": 1912,
    "完後的": 1913,
    "完成": 1914,
    "完整": 1915,
    "完畢": 1916,
    "完美": 1917,
    "定": 1918,
    "定值": 1919,
    "定性": 1920,
    "定手": 1921,
    "定期": 1922,
    "定點": 1923,
    "客": 1924,
    "客人": 1925,
    "客戶": 1926,
    "室": 1927,
    "家": 1928,
    "家中": 1929,
    "家人": 1930,
    "家庭": 1931,
    "家用": 1932,
    "容器": 1933,
    "容易": 1934,
    "容量": 1935,
    "容錯": 1936,
    "密": 1937,
    "密切": 1938,
    "密合": 1939,
    "密實": 1940,
    "密封": 1941,
    "密度": 1942,
    "富含": 1943,
    "富士": 1944,
    "實": 1945,
    "實作": 1946,
    "實惠": 1947,
    "實惠且": 1948,
    "實有": 1949,
    "實現": 1950,
    "實甜感": 1951,
    "實用": 1952,
    "實習": 1953,
    "實踐": 1954,
    "實際": 1955,
    "實際上": 1956,
    "實風味": 1957,
    "實驗": 1958,
    "實驗室": 1959,
    "實體": 1960,
    "寫": 1961,
    "寬口": 1962,
    "寬口長": 1963,
    "寬度": 1964,
    "寶庫": 1965,
    "寶藏": 1966,
    "將": 1967,
    "將下壺": 1968,
    "將中細": 1969,
    "將介紹": 1970,
    "將兩者": 1971,
    "將其": 1972,
    "將呈現": 1973,
    "將家裡": 1974,
    "將實驗室": 1975,
    "將帶": 1976,
    "將影響": 1977,
    "將成": 1978,
    "將所": 1979,
    "將手": 1980,
    "將指導": 1981,
    "將探": 1982,
    "將教": 1983,
    "將會": 1984,
    "將極": 1985,
    "將極細": 1986,
    "將此": 1987,
    "將水": 1988,
    "將水壺": 1989,
    "將決定": 1990,
    "將海鹽": 1991,
    "將滿水": 1992,
    "將濃縮": 1993,
    "將濾": 1994,
    "將濾包": 1995,
    "將濾掛": 1996,
    "將濾杯": 1997,
    "將濾紙": 1998,
    "將為": 1999,
    "將煮": 2000,
    "將熱水": 2001,
    "將熱水吸": 2002,
    "將磨": 2003,
    "將粉": 2004,
    "將粗": 2005,
    "將細到": 2006,
    "將總": 2007,
    "將總注": 2008,
    "將能": 2009,
    "將裝": 2010,
    "將裡面": 2011,
    "將進": 2012,
    "將過": 2013,
    "將開水": 2014,
    "將顆": 2015,
    "專利": 2016,
    "專利濾": 2017,
    "專屬": 2018,
    "專業": 2019,
    "專業手": 2020,
    "專為": 2021,
    "專用": 2022,
    "專門": 2023,
    "尋找": 2024,
    "對": 2025,
    "對味": 2026,
    "對待": 2027,
    "對水溫": 2028,
    "對照": 2029,
    "對話": 2030,
    "對象": 2031,
    "對風味": 2032,
    "導熱": 2033,
    "導熱性": 2034,
    "導致": 2035,
    "小": 2036,
    "小口": 2037,
    "小型": 2038,
    "小巧": 2039,
    "小心": 2040,
    "小時": 2041,
    "小杯": 2042,
    "小洞": 2043,
    "小火": 2044,
    "小範圍": 2045,
    "小結": 2046,
    "小蘇": 2047,
    "小飛馬": 2048,
    "小飛鷹": 2049,
    "少": 2050,
    "少後兩次": 2051,
    "少數": 2052,
    "少注": 2053,
    "少量": 2054,
    "尖酸": 2055,
    "尖銳": 2056,
    "尚未": 2057,
    "尤其": 2058,
    "就": 2059,
    "就是": 2060,
    "就會": 2061,
    "就要": 2062,
    "尺寸": 2063,
    "尾巴": 2064,
    "尾韻": 2065,
    "局部": 2066,
    "居住": 2067,
    "居多": 2068,
    "居家": 2069,
    "居然": 2070,
    "屈臣氏": 2071,
    "展出": 2072,
    "展現": 2073,
    "展示": 2074,
    "展開": 2075,
    "層": 2076,
    "層意義": 2077,
    "層次": 2078,
    "層次拉開": 2079,
    "屬": 2080,
    "屬於滴": 2081,
    "屬的": 2082,
    "工作": 2083,
    "工作室": 2084,
    "工具": 2085,
    "工學": 2086,
    "工序": 2087,
    "工欲善其事": 2088,
    "左右": 2089,
    "巧克力": 2090,
    "巧妙": 2091,
    "巨大": 2092,
    "差": 2093,
    "差不多": 2094,
    "差別": 2095,
    "差太多": 2096,
    "差異": 2097,
    "已": 2098,
    "已成": 2099,
    "已有": 2100,
    "已經": 2101,
    "已經壞": 2102,
    "已經成": 2103,
    "巷弄": 2104,
    "市售": 2105,
    "市場": 2106,
    "市面": 2107,
    "市面上": 2108,
    "布": 2109,
    "布濾袋": 2110,
    "布質": 2111,
    "希望": 2112,
    "師": 2113,
    "師傅": 2114,
    "師到": 2115,
    "師大賽": 2116,
    "師手": 2117,
    "師認證": 2118,
    "帶": 2119,
    "帶來": 2120,
    "帶入": 2121,
    "帶出": 2122,
    "帶有": 2123,
    "帶渣": 2124,
    "帶給": 2125,
    "帶著": 2126,
    "帶酸": 2127,
    "常": 2128,
    "常常": 2129,
    "常溫": 2130,
    "常用": 2131,
    "常用工具": 2132,
    "常見": 2133,
    "常識": 2134,
    "幫": 2135,
    "幫助": 2136,
    "幫助後續": 2137,
    "幫助熱": 2138,
    "幫助練": 2139,
    "幫手": 2140,
    "干擾": 2141,
    "平": 2142,
    "平價": 2143,
    "平刀": 2144,
    "平均": 2145,
    "平坦": 2146,
    "平推": 2147,
    "平整": 2148,
    "平整度": 2149,
    "平時": 2150,
    "平權": 2151,
    "平淡": 2152,
    "平穩": 2153,
    "平衡": 2154,
    "平貼": 2155,
    "平順": 2156,
    "年": 2157,
    "年代": 2158,
    "年前": 2159,
    "年間": 2160,
    "幾": 2161,
    "幾下": 2162,
    "幾乎": 2163,
    "幾個": 2164,
    "幾分鐘": 2165,
    "幾塊": 2166,
    "幾度": 2167,
    "幾次": 2168,
    "幾秒鐘": 2169,
    "幾種": 2170,
    "幾筆": 2171,
    "床": 2172,
    "床會": 2173,
    "底": 2174,
    "底部": 2175,
    "店": 2176,
    "店家": 2177,
    "店裡": 2178,
    "度": 2179,
    "度之間": 2180,
    "度則": 2181,
    "度外": 2182,
    "度太細": 2183,
    "度應": 2184,
    "度會": 2185,
    "度極細": 2186,
    "度越": 2187,
    "度過": 2188,
    "度適": 2189,
    "廓": 2190,
    "廚師": 2191,
    "廚房": 2192,
    "廠商": 2193,
    "廣大": 2194,
    "廣泛": 2195,
    "廳": 2196,
    "延伸": 2197,
    "延長": 2198,
    "建立": 2199,
    "建議": 2200,
    "建議將": 2201,
    "建議量": 2202,
    "弄會": 2203,
    "式": 2204,
    "式壺": 2205,
    "引人注目": 2206,
    "引入": 2207,
    "引出": 2208,
    "引導": 2209,
    "引起": 2210,
    "引領": 2211,
    "強": 2212,
    "強勁": 2213,
    "強大": 2214,
    "強度": 2215,
    "強烈": 2216,
    "強調": 2217,
    "強迫": 2218,
    "彈性": 2219,
    "彙": 2220,
    "形刀盤": 2221,
    "形容": 2222,
    "形式": 2223,
    "形成": 2224,
    "形濾杯": 2225,
    "形狀": 2226,
    "形狀會": 2227,
    "影片": 2228,
    "影響": 2229,
    "影響力": 2230,
    "影響者": 2231,
    "彷": 2232,
    "彷如": 2233,
    "彿": 2234,
    "往": 2235,
    "往二個": 2236,
    "往外": 2237,
    "往往": 2238,
    "往後折": 2239,
    "往後段": 2240,
    "待": 2241,
    "待多練": 2242,
    "待濾": 2243,
    "待濾杯": 2244,
    "很": 2245,
    "很受": 2246,
    "很多": 2247,
    "很大": 2248,
    "很少": 2249,
    "很強": 2250,
    "很費力": 2251,
    "後": 2252,
    "徑則": 2253,
    "得": 2254,
    "得以": 2255,
    "得到": 2256,
    "得太快": 2257,
    "得太細": 2258,
    "得宜": 2259,
    "得心": 2260,
    "從": 2261,
    "從何": 2262,
    "從冠": 2263,
    "從冰滴": 2264,
    "從壺": 2265,
    "從手": 2266,
    "從數": 2267,
    "從水": 2268,
    "從水溫": 2269,
    "從理論": 2270,
    "從義式": 2271,
    "從觀": 2272,
    "從錐形": 2273,
    "復": 2274,
    "循序": 2275,
    "循環": 2276,
    "微妙": 2277,
    "微小": 2278,
    "微氣": 2279,
    "微粒": 2280,
    "微調": 2281,
    "微量": 2282,
    "德國": 2283,
    "徹底": 2284,
    "心": 2285,
    "心中": 2286,
    "心力": 2287,
    "心得": 2288,
    "心情": 2289,
    "心無法": 2290,
    "必備": 2291,
    "必先利其器": 2292,
    "必學": 2293,
    "必知": 2294,
    "必要": 2295,
    "必讀": 2296,
    "必需品": 2297,
    "必須": 2298,
    "忙碌": 2299,
    "快": 2300,
    "快樂": 2301,
    "快速": 2302,
    "忽大忽小": 2303,
    "忽快忽慢": 2304,
    "忽視": 2305,
    "怎樣": 2306,
    "怎麼": 2307,
    "怎麼樣": 2308,
    "思義是": 2309,
    "性": 2310,
    "性且": 2311,
    "性能": 2312,
    "恆溫壺": 2313,
    "恰當": 2314,
    "悠久": 2315,
    "您": 2316,
    "悶蒸": 2317,
    "悶蒸屬": 2318,
    "悶蒸後一注": 2319,
    "悶蒸後將": 2320,
    "悶蒸時": 2321,
    "悶蒸階段": 2322,
    "情境": 2323,
    "情況": 2324,
    "情調": 2325,
    "惟": 2326,
    "惡": 2327,
    "惰": 2328,
    "想": 2329,
    "想像": 2330,
    "想為": 2331,
    "想要": 2332,
    "想體驗": 2333,
    "愈": 2334,
    "愈長": 2335,
    "愉悅": 2336,
    "意即": 2337,
    "意味著": 2338,
    "意思": 2339,
    "意義": 2340,
    "愛": 2341,
    "愛好者": 2342,
    "愛樂壓": 2343,
    "愛甜": 2344,
    "愛酸選": 2345,
    "感": 2346,
    "感來": 2347,
    "感到": 2348,
    "感動": 2349,
    "感受": 2350,
    "感官": 2351,
    "感性": 2352,
    "感覺": 2353,
    "感豐富": 2354,
    "態度": 2355,
    "慎選": 2356,
    "慢": 2357,
    "慢慢": 2358,
    "慢跑": 2359,
    "慢速": 2360,
    "慣": 2361,
    "慮": 2362,
    "懂": 2363,
    "懂常見": 2364,
    "懂得": 2365,
    "應": 2366,
    "應備": 2367,
    "應將": 2368,
    "應少": 2369,
    "應手": 2370,
    "應為": 2371,
    "應用": 2372,
    "應該": 2373,
    "應選用": 2374,
    "應靜置": 2375,
    "懶": 2376,
    "懶人": 2377,
    "懶人包": 2378,
    "懸浮": 2379,
    "成": 2380,
    "成分": 2381,
    "成功": 2382,
    "成功率": 2383,
    "成品": 2384,
    "成室": 2385,
    "成就": 2386,
    "成敗": 2387,
    "成是": 2388,
    "成本": 2389,
    "成本低": 2390,
    "成果": 2391,
    "成為": 2392,
    "成為將": 2393,
    "成長": 2394,
    "我": 2395,
    "我們": 2396,
    "我們將": 2397,
    "我們還": 2398,
    "我家": 2399,
    "我手": 2400,
    "我練": 2401,
    "我聞到": 2402,
    "或": 2403,
    "或室": 2404,
    "或布": 2405,
    "或常溫": 2406,
    "或悶": 2407,
    "或拉動": 2408,
    "或是": 2409,
    "或毀": 2410,
    "或氣": 2411,
    "或法": 2412,
    "或用": 2413,
    "或羅布": 2414,
    "或者": 2415,
    "或許": 2416,
    "或調": 2417,
    "或露": 2418,
    "或點": 2419,
    "截至": 2420,
    "戲劇": 2421,
    "戴眼鏡": 2422,
    "戶外": 2423,
    "所": 2424,
    "所以": 2425,
    "所學": 2426,
    "所有": 2427,
    "所欲": 2428,
    "所產生": 2429,
    "所用": 2430,
    "所謂": 2431,
    "所選": 2432,
    "手": 2433,
    "手上": 2434,
    "手作": 2435,
    "手動": 2436,
    "手將": 2437,
    "手式": 2438,
    "手感": 2439,
    "手把手": 2440,
    "手掌": 2441,
    "手搖": 2442,
    "手搖磨": 2443,
    "手搖磨豆": 2444,
    "手柄": 2445,
    "手法": 2446,
    "手腕": 2447,
    "手衝": 2448,
    "手衝式": 2449,
    "手邊": 2450,
    "才": 2451,
    "才能": 2452,
    "扎": 2453,
    "扎實": 2454,
    "打": 2455,
    "打散": 2456,
    "打粉": 2457,
    "打造": 2458,
    "打造出": 2459,
    "打開": 2460,
    "扣上": 2461,
    "扮演": 2462,
    "找": 2463,
    "找出": 2464,
    "找到": 2465,
    "承裝": 2466,
    "承襲義": 2467,
    "技": 2468,
    "技巧": 2469,
    "技法": 2470,
    "技能": 2471,
    "技術": 2472,
    "技術門檻": 2473,
    "把": 2474,
    "把壺": 2475,
    "把手": 2476,
    "抓": 2477,
    "抓取": 2478,
    "投入": 2479,
    "投資": 2480,
    "投資好": 2481,
    "抖": 2482,
    "抗": 2483,
    "抗氧化": 2484,
    "抗病": 2485,
    "折壓": 2486,
    "折損": 2487,
    "折濾紙": 2488,
    "抹": 2489,
    "拆": 2490,
    "拆卸": 2491,
    "拆成": 2492,
    "拆解": 2493,
    "拉": 2494,
    "拉出": 2495,
    "拉動": 2496,
    "拉直": 2497,
    "拉花": 2498,
    "拉長": 2499,
    "拉開": 2500,
    "拉高": 2501,
    "拋棄式": 2502,
    "拌": 2503,
    "拍": 2504,
    "拍平": 2505,
    "拍打": 2506,
    "拍濾杯": 2507,
    "拿": 2508,
    "拿出": 2509,
    "拿到": 2510,
    "拿捏": 2511,
    "持續": 2512,
    "指": 2513,
    "指一種": 2514,
    "指中斷": 2515,
    "指南": 2516,
    "指定": 2517,
    "按": 2518,
    "按下": 2519,
    "按悶": 2520,
    "按照": 2521,
    "按鈕": 2522,
    "挑": 2523,
    "挑戰": 2524,
    "挑戰點": 2525,
    "挑起": 2526,
    "挑選": 2527,
    "挑選單": 2528,
    "挑選時": 2529,
    "挑選要": 2530,
    "挖": 2531,
    "挖出": 2532,
    "挖掘出": 2533,
    "挖洞": 2534,
    "挫折感": 2535,
    "捕": 2536,
    "捷徑": 2537,
    "掀起": 2538,
    "掉": 2539,
    "掌控": 2540,
    "掌握": 2541,
    "排出": 2542,
    "排氣": 2543,
    "排氣量": 2544,
    "排氣閥": 2545,
    "排除": 2546,
    "掛在": 2547,
    "掛耳": 2548,
    "採取": 2549,
    "採用": 2550,
    "採用免": 2551,
    "探索": 2552,
    "接下": 2553,
    "接住": 2554,
    "接入": 2555,
    "接受": 2556,
    "接合": 2557,
    "接單": 2558,
    "接著": 2559,
    "接著將": 2560,
    "接著緩": 2561,
    "接觸": 2562,
    "接近": 2563,
    "控": 2564,
    "控制": 2565,
    "控制性": 2566,
    "控溫": 2567,
    "推": 2568,
    "推入": 2569,
    "推出": 2570,
    "推力": 2571,
    "推動": 2572,
    "推廣": 2573,
    "推薦": 2574,
    "推薦給": 2575,
    "推送": 2576,
    "推進": 2577,
    "推過": 2578,
    "描述": 2579,
    "提供": 2580,
    "提倡": 2581,
    "提出": 2582,
    "提到": 2583,
    "提升": 2584,
    "提取": 2585,
    "提壺": 2586,
    "提振": 2587,
    "提高": 2588,
    "插": 2589,
    "插電版外": 2590,
    "握把": 2591,
    "揭示": 2592,
    "搖勻": 2593,
    "搖式": 2594,
    "搖晃": 2595,
    "搖晃均": 2596,
    "搖晃壺": 2597,
    "搖晃濾杯": 2598,
    "搖晃至": 2599,
    "搜尋手": 2600,
    "搞": 2601,
    "搞不好": 2602,
    "搞懂": 2603,
    "搭": 2604,
    "搭載": 2605,
    "搭配": 2606,
    "摩卡": 2607,
    "摺": 2608,
    "撇": 2609,
    "撐": 2610,
    "撐托": 2611,
    "撐開": 2612,
    "撕開": 2613,
    "撥豆": 2614,
    "擁有": 2615,
    "擅長": 2616,
    "擇": 2617,
    "擊濾杯": 2618,
    "操作": 2619,
    "操作方法": 2620,
    "操過頭": 2621,
    "擔心": 2622,
    "擠壓": 2623,
    "擴散": 2624,
    "擺": 2625,
    "擺脫": 2626,
    "擾動": 2627,
    "擾動會": 2628,
    "擾流": 2629,
    "攜": 2630,
    "攜帶": 2631,
    "攜式": 2632,
    "攝氏": 2633,
    "攪": 2634,
    "攪動": 2635,
    "攪動粉": 2636,
    "攪拌": 2637,
    "攪拌則": 2638,
    "支援": 2639,
    "支撐": 2640,
    "收": 2641,
    "收尾": 2642,
    "收納": 2643,
    "攸關": 2644,
    "改以": 2645,
    "改善": 2646,
    "改成": 2647,
    "改為": 2648,
    "改用": 2649,
    "改良": 2650,
    "改變": 2651,
    "改進": 2652,
    "攻略": 2653,
    "放": 2654,
    "放上": 2655,
    "放下": 2656,
    "放入": 2657,
    "放出": 2658,
    "放在": 2659,
    "放大": 2660,
    "放慢": 2661,
    "放棄": 2662,
    "放濾紙": 2663,
    "放置": 2664,
    "放進": 2665,
    "故": 2666,
    "故事性": 2667,
    "故意": 2668,
    "效應": 2669,
    "效果": 2670,
    "效率": 2671,
    "效率高": 2672,
    "效用": 2673,
    "效能": 2674,
    "敏感": 2675,
    "敏感度": 2676,
    "救星": 2677,
    "敘述": 2678,
    "教": 2679,
    "教學": 2680,
    "教學及": 2681,
    "教學步": 2682,
    "教父": 2683,
    "教育": 2684,
    "教育者": 2685,
    "散": 2686,
    "散失到": 2687,
    "散熱": 2688,
    "散發": 2689,
    "整": 2690,
    "整個": 2691,
    "整出": 2692,
    "整平": 2693,
    "整性": 2694,
    "整水溫": 2695,
    "整版": 2696,
    "整理": 2697,
    "整粉": 2698,
    "整組": 2699,
    "整組僅": 2700,
    "整體": 2701,
    "數": 2702,
    "數也會": 2703,
    "數人": 2704,
    "數位": 2705,
    "數來": 2706,
    "數值": 2707,
    "數年": 2708,
    "數據": 2709,
    "數據驗證": 2710,
    "文化": 2711,
    "文化展": 2712,
    "文末": 2713,
    "文章": 2714,
    "文解": 2715,
    "文青濾杯": 2716,
    "料斗": 2717,
    "斯塔": 2718,
    "新": 2719,
    "新手": 2720,
    "新水時": 2721,
    "新鮮": 2722,
    "新鮮現": 2723,
    "斷": 2724,
    "斷來": 2725,
    "斷水": 2726,
    "斷水來": 2727,
    "方便": 2728,
    "方向": 2729,
    "方式": 2730,
    "方案": 2731,
    "方法": 2732,
    "方面": 2733,
    "於": 2734,
    "於將": 2735,
    "施加": 2736,
    "旅程": 2737,
    "旅行": 2738,
    "旅行者": 2739,
    "旅途": 2740,
    "旅遊": 2741,
    "旋轉": 2742,
    "旋轉劃": 2743,
    "族群": 2744,
    "既": 2745,
    "日": 2746,
    "日常": 2747,
    "日常生活": 2748,
    "日期": 2749,
    "日本": 2750,
    "早": 2751,
    "早已": 2752,
    "早晨": 2753,
    "早會": 2754,
    "昂貴": 2755,
    "明": 2756,
    "明亮": 2757,
    "明手": 2758,
    "明白": 2759,
    "明確": 2760,
    "明者": 2761,
    "明華興業": 2762,
    "明解": 2763,
    "明顯": 2764,
    "易": 2765,
    "易度": 2766,
    "易清洗": 2767,
    "易用": 2768,
    "易用性": 2769,
    "是": 2770,
    "是否": 2771,
    "是將": 2772,
    "是屬": 2773,
    "是絕": 2774,
    "時": 2775,
    "時下": 2776,
    "時候": 2777,
    "時光": 2778,
    "時將": 2779,
    "時常": 2780,
    "時收": 2781,
    "時會": 2782,
    "時機": 2783,
    "時濾杯": 2784,
    "時無法": 2785,
    "時產生": 2786,
    "時盡": 2787,
    "時要": 2788,
    "時較": 2789,
    "時釋": 2790,
    "時針": 2791,
    "時長": 2792,
    "時間": 2793,
    "晃動": 2794,
    "普及": 2795,
    "普通": 2796,
    "智": 2797,
    "暫時": 2798,
    "曬": 2799,
    "曲線": 2800,
    "更": 2801,
    "更乾淨": 2802,
    "更具": 2803,
    "更加": 2804,
    "更厚實": 2805,
    "更合適": 2806,
    "更多": 2807,
    "更多層": 2808,
    "更好": 2809,
    "更換": 2810,
    "更新": 2811,
    "更是": 2812,
    "更木質": 2813,
    "更深": 2814,
    "更溫": 2815,
    "更細": 2816,
    "更絲": 2817,
    "更能": 2818,
    "更苦": 2819,
    "更長": 2820,
    "更飽滿": 2821,
    "更香濃": 2822,
    "更高劑": 2823,
    "曾": 2824,
    "曾經": 2825,
    "替代": 2826,
    "最": 2827,
    "最乾淨": 2828,
    "最低": 2829,
    "最佳": 2830,
    "最偉大": 2831,
    "最先": 2832,
    "最具": 2833,
    "最受": 2834,
    "最合適": 2835,
    "最喜歡": 2836,
    "最均": 2837,
    "最大": 2838,
    "最好": 2839,
    "最小": 2840,
    "最差": 2841,
    "最常": 2842,
    "最常見": 2843,
    "最廣": 2844,
    "最強": 2845,
    "最後一哩": 2846,
    "最後以": 2847,
    "最後倒": 2848,
    "最後剩": 2849,
    "最後將": 2850,
    "最後才": 2851,
    "最後打開": 2852,
    "最後推薦": 2853,
    "最後是": 2854,
    "最後段": 2855,
    "最後為": 2856,
    "最後用": 2857,
    "最後階段": 2858,
    "最擔": 2859,
    "最新": 2860,
    "最早": 2861,
    "最為": 2862,
    "最熱門": 2863,
    "最細": 2864,
    "最終": 2865,
    "最能": 2866,
    "最舒服": 2867,
    "最近": 2868,
    "最適": 2869,
    "最重": 2870,
    "最風行": 2871,
    "最飽滿": 2872,
    "最高": 2873,
    "會": 2874,
    "會主動詢": 2875,
    "會以": 2876,
    "會出": 2877,
    "會分": 2878,
    "會因": 2879,
    "會將": 2880,
    "會導致": 2881,
    "會帶": 2882,
    "會建議": 2883,
    "會斷": 2884,
    "會有": 2885,
    "會極度": 2886,
    "會沉": 2887,
    "會濾": 2888,
    "會為": 2889,
    "會產生": 2890,
    "會用": 2891,
    "會經": 2892,
    "月": 2893,
    "有": 2894,
    "有三種": 2895,
    "有些": 2896,
    "有人": 2897,
    "有什麼": 2898,
    "有何": 2899,
    "有個性": 2900,
    "有側": 2901,
    "有利": 2902,
    "有助": 2903,
    "有多種": 2904,
    "有所": 2905,
    "有所不同": 2906,
    "有效": 2907,
    "有效率": 2908,
    "有澀": 2909,
    "有益": 2910,
    "有破損": 2911,
    "有種": 2912,
    "有興趣": 2913,
    "有著": 2914,
    "有趣": 2915,
    "有酸味": 2916,
    "有關": 2917,
    "有限": 2918,
    "有點": 2919,
    "朋友": 2920,
    "服貼": 2921,
    "期": 2922,
    "期以": 2923,
    "期待": 2924,
    "期望": 2925,
    "期間": 2926,
    "期限": 2927,
    "木質": 2928,
    "未": 2929,
    "未來": 2930,
    "未必": 2931,
    "末": 2932,
    "本世紀": 2933,
    "本來": 2934,
    "本文": 2935,
    "本質": 2936,
    "本身": 2937,
    "杏仁": 2938,
    "材質": 2939,
    "杯": 2940,
    "杯中": 2941,
    "杯口": 2942,
    "杯子": 2943,
    "杯底": 2944,
    "杯數": 2945,
    "杯測": 2946,
    "東京": 2947,
    "東西": 2948,
    "析出": 2949,
    "林桑": 2950,
    "果": 2951,
    "果味": 2952,
    "果實": 2953,
    "果皮": 2954,
    "果酸": 2955,
    "果香": 2956,
    "柄": 2957,
    "某些": 2958,
    "某個": 2959,
    "某個點": 2960,
    "某種": 2961,
    "柑橘": 2962,
    "柔和": 2963,
    "柔滑": 2964,
    "柔細": 2965,
    "查看": 2966,
    "柱": 2967,
    "柱塞": 2968,
    "柱形": 2969,
    "核心": 2970,
    "根據": 2971,
    "根據個": 2972,
    "根本性": 2973,
    "格": 2974,
    "格將": 2975,
    "桌上": 2976,
    "條件": 2977,
    "梯形": 2978,
    "棒": 2979,
    "棕": 2980,
    "植物": 2981,
    "業者": 2982,
    "極": 2983,
    "極低": 2984,
    "極佳": 2985,
    "極其": 2986,
    "極大": 2987,
    "極客": 2988,
    "極度": 2989,
    "極慢": 2990,
    "極易": 2991,
    "極淡": 2992,
    "極為": 2993,
    "極短": 2994,
    "極細": 2995,
    "極致": 2996,
    "極致法": 2997,
    "極軟水": 2998,
    "極難": 2999,
    "極高": 3000,
    "概念": 3001,
    "榨": 3002,
    "榨出": 3003,
    "榨機": 3004,
    "構": 3005,
    "槽": 3006,
    "樂": 3007,
    "樂意": 3008,
    "樂趣": 3009,
    "標": 3010,
    "標明": 3011,
    "標準": 3012,
    "標準化": 3013,
    "標示": 3014,
    "標記": 3015,
    "標誌": 3016,
    "模式": 3017,
    "模糊": 3018,
    "樣": 3019,
    "樣貌": 3020,
    "樸": 3021,
    "樹": 3022,
    "樹脂": 3023,
    "機": 3024,
    "機來": 3025,
    "機判斷": 3026,
    "機器": 3027,
    "機型": 3028,
    "機壓力": 3029,
    "機時": 3030,
    "機更": 3031,
    "機為例": 3032,
    "機煮": 3033,
    "機特點": 3034,
    "機率": 3035,
    "機磨": 3036,
    "機種類": 3037,
    "機能": 3038,
    "機裡": 3039,
    "機要": 3040,
    "機身": 3041,
    "檢查": 3042,
    "檢測": 3043,
    "檸檬水": 3044,
    "檸檬酸質": 3045,
    "權衡": 3046,
    "次": 3047,
    "次悶": 3048,
    "次感": 3049,
    "次數": 3050,
    "次斷": 3051,
    "欲": 3052,
    "款式": 3053,
    "歇": 3054,
    "歡後段": 3055,
    "歡義式": 3056,
    "歡迎": 3057,
    "歡酸": 3058,
    "正": 3059,
    "正在": 3060,
    "正如": 3061,
    "正常": 3062,
    "正式": 3063,
    "正是": 3064,
    "正確": 3065,
    "此": 3066,
    "此刻": 3067,
    "此外": 3068,
    "此情": 3069,
    "此手": 3070,
    "此時": 3071,
    "此步": 3072,
    "此法": 3073,
    "此範圍": 3074,
    "步驟": 3075,
    "歷史": 3076,
    "歸": 3077,
    "死死地": 3078,
    "死角": 3079,
    "殘留": 3080,
    "殘粉": 3081,
    "段": 3082,
    "段注": 3083,
    "殺": 3084,
    "母液": 3085,
    "每": 3086,
    "每一個": 3087,
    "每一種": 3088,
    "每一顆": 3089,
    "每位": 3090,
    "每個": 3091,
    "每天": 3092,
    "每日": 3093,
    "每杯": 3094,
    "每次": 3095,
    "每種": 3096,
    "每項": 3097,
    "每顆": 3098,
    "比": 3099,
    "比亞": 3100,
    "比亞耶加": 3101,
    "比亞豆": 3102,
    "比來": 3103,
    "比例": 3104,
    "比傳統": 3105,
    "比及": 3106,
    "比建議": 3107,
    "比會": 3108,
    "比杯量": 3109,
    "比法": 3110,
    "比為": 3111,
    "比起": 3112,
    "比較": 3113,
    "比重": 3114,
    "毛巾": 3115,
    "氣味": 3116,
    "氣壓": 3117,
    "氣壓力": 3118,
    "氣泡": 3119,
    "氣體": 3120,
    "氫根": 3121,
    "氮氣": 3122,
    "氯氣": 3123,
    "水": 3124,
    "水一進": 3125,
    "水上": 3126,
    "水並": 3127,
    "水中": 3128,
    "水份": 3129,
    "水位": 3130,
    "水先": 3131,
    "水分": 3132,
    "水則": 3133,
    "水器": 3134,
    "水在": 3135,
    "水均": 3136,
    "水均勻": 3137,
    "水壓": 3138,
    "水壺": 3139,
    "水平": 3140,
    "水往": 3141,
    "水感": 3142,
    "水拉開": 3143,
    "水持續": 3144,
    "水放乾": 3145,
    "水放涼": 3146,
    "水是": 3147,
    "水時": 3148,
    "水會": 3149,
    "水果": 3150,
    "水柱": 3151,
    "水桶": 3152,
    "水比": 3153,
    "水沸": 3154,
    "水法": 3155,
    "水注": 3156,
    "水洗": 3157,
    "水流": 3158,
    "水流量": 3159,
    "水浸": 3160,
    "水浸泡": 3161,
    "水準": 3162,
    "水溫": 3163,
    "水溫會": 3164,
    "水滋潤": 3165,
    "水滴": 3166,
    "水煮": 3167,
    "水瓶": 3168,
    "水粉": 3169,
    "水能": 3170,
    "水蒸": 3171,
    "水裡": 3172,
    "水質": 3173,
    "水透過": 3174,
    "水進": 3175,
    "水量": 3176,
    "水面": 3177,
    "永遠": 3178,
    "求": 3179,
    "污染": 3180,
    "決": 3181,
    "決定": 3182,
    "決水質": 3183,
    "沉": 3184,
    "沉入": 3185,
    "沉悶": 3186,
    "沉浸": 3187,
    "沉穩": 3188,
    "沉醉": 3189,
    "沒": 3190,
    "沒有": 3191,
    "沒關": 3192,
    "沖": 3193,
    "沙漏": 3194,
    "河野": 3195,
    "沸水": 3196,
    "沸騰": 3197,
    "沸點": 3198,
    "油": 3199,
    "油脂": 3200,
    "沾": 3201,
    "況下": 3202,
    "法": 3203,
    "法使": 3204,
    "法壓": 3205,
    "法壓壺": 3206,
    "法子": 3207,
    "法式": 3208,
    "法是": 3209,
    "法會": 3210,
    "法會悶": 3211,
    "法相": 3212,
    "法而": 3213,
    "法能": 3214,
    "法衍": 3215,
    "法類": 3216,
    "泡": 3217,
    "泡出": 3218,
    "泡前": 3219,
    "泡器": 3220,
    "泡室": 3221,
    "泡式": 3222,
    "泡水": 3223,
    "泡沫": 3224,
    "泡法": 3225,
    "泡法則": 3226,
    "泡濾掛": 3227,
    "泡者": 3228,
    "泡茶": 3229,
    "泡階段": 3230,
    "波": 3231,
    "波浪": 3232,
    "波浪形": 3233,
    "注": 3234,
    "注下": 3235,
    "注入": 3236,
    "注完": 3237,
    "注意": 3238,
    "注水": 3239,
    "注水方式": 3240,
    "注滿": 3241,
    "注熱水": 3242,
    "注範圍": 3243,
    "泰山": 3244,
    "洗": 3245,
    "洗去": 3246,
    "洗掉": 3247,
    "洞": 3248,
    "洞心": 3249,
    "活塞": 3250,
    "活塞式": 3251,
    "活性碳": 3252,
    "流下": 3253,
    "流乾": 3254,
    "流乾才": 3255,
    "流乾時": 3256,
    "流入": 3257,
    "流出": 3258,
    "流失": 3259,
    "流孔": 3260,
    "流完": 3261,
    "流得": 3262,
    "流法": 3263,
    "流派": 3264,
    "流程": 3265,
    "流行": 3266,
    "流起": 3267,
    "流速": 3268,
    "流體": 3269,
    "浪費": 3270,
    "浮力": 3271,
    "浮渣": 3272,
    "海鹽": 3273,
    "浸入": 3274,
    "浸泡": 3275,
    "浸潤": 3276,
    "浸濕": 3277,
    "浸濕會": 3278,
    "浸濕濾紙": 3279,
    "浸透": 3280,
    "消化": 3281,
    "消失": 3282,
    "消耗": 3283,
    "消費": 3284,
    "消費者": 3285,
    "消除": 3286,
    "液": 3287,
    "液中": 3288,
    "液以": 3289,
    "液便": 3290,
    "液倒": 3291,
    "液可": 3292,
    "液和水": 3293,
    "液後結束": 3294,
    "液態": 3295,
    "液會": 3296,
    "液滴": 3297,
    "液調": 3298,
    "液變": 3299,
    "液變成": 3300,
    "液透過": 3301,
    "液通": 3302,
    "液醇度": 3303,
    "液量": 3304,
    "液面": 3305,
    "液體": 3306,
    "涼涼": 3307,
    "淡": 3308,
    "淡一點": 3309,
    "淡而": 3310,
    "淡薄": 3311,
    "淡雅": 3312,
    "深": 3313,
    "深入": 3314,
    "深入研究": 3315,
    "深刻": 3316,
    "深受": 3317,
    "深培豆": 3318,
    "深度": 3319,
    "深海": 3320,
    "深焙": 3321,
    "深焙豆": 3322,
    "深處": 3323,
    "混": 3324,
    "混入": 3325,
    "混合": 3326,
    "混合式": 3327,
    "混合物": 3328,
    "混在": 3329,
    "混淆": 3330,
    "混濁": 3331,
    "混著來": 3332,
    "淹沒過": 3333,
    "淺": 3334,
    "淺中": 3335,
    "淺培": 3336,
    "淺焙豆": 3337,
    "添加": 3338,
    "添購": 3339,
    "清單": 3340,
    "清新": 3341,
    "清晰": 3342,
    "清楚": 3343,
    "清水": 3344,
    "清洗": 3345,
    "清淡": 3346,
    "清潔": 3347,
    "清潔省": 3348,
    "清爽": 3349,
    "清理": 3350,
    "減少": 3351,
    "減緩": 3352,
    "渣": 3353,
    "渦": 3354,
    "測分": 3355,
    "測法": 3356,
    "測試": 3357,
    "測課": 3358,
    "測量": 3359,
    "測驗": 3360,
    "渾厚": 3361,
    "湊": 3362,
    "湯匙": 3363,
    "源自": 3364,
    "準備": 3365,
    "準確": 3366,
    "準確性": 3367,
    "溜": 3368,
    "溝通": 3369,
    "溢出": 3370,
    "溫": 3371,
    "溫介": 3372,
    "溫到": 3373,
    "溫則": 3374,
    "溫和不傷": 3375,
    "溫和注": 3376,
    "溫壺": 3377,
    "溫太低": 3378,
    "溫度": 3379,
    "溫度計": 3380,
    "溫控": 3381,
    "溫換": 3382,
    "溫杯": 3383,
    "溫柔": 3384,
    "溫水": 3385,
    "溫潤": 3386,
    "溫熱": 3387,
    "溫過": 3388,
    "溫降": 3389,
    "溫順": 3390,
    "溶": 3391,
    "溶入": 3392,
    "溶出": 3393,
    "溶劑": 3394,
    "溶解": 3395,
    "滋味": 3396,
    "滋潤": 3397,
    "滑": 3398,
    "滑倒": 3399,
    "滑順": 3400,
    "滑順度": 3401,
    "滲入": 3402,
    "滲濾": 3403,
    "滲濾器": 3404,
    "滲濾式": 3405,
    "滲透": 3406,
    "滲透進": 3407,
    "滴": 3408,
    "滴乾": 3409,
    "滴入": 3410,
    "滴出": 3411,
    "滴回": 3412,
    "滴式": 3413,
    "滴水": 3414,
    "滴法": 3415,
    "滴滿": 3416,
    "滴漏": 3417,
    "滴濾": 3418,
    "滴濾式": 3419,
    "滴落": 3420,
    "滴頭": 3421,
    "滾": 3422,
    "滿": 3423,
    "滿厚實": 3424,
    "滿意": 3425,
    "滿水": 3426,
    "滿滿": 3427,
    "滿濾杯": 3428,
    "滿足": 3429,
    "漂白": 3430,
    "漏斗": 3431,
    "演進": 3432,
    "漩": 3433,
    "漫長": 3434,
    "漬": 3435,
    "漸漸": 3436,
    "漸進": 3437,
    "漸釋": 3438,
    "潤濕": 3439,
    "潤濕濾紙": 3440,
    "潤紙": 3441,
    "澀": 3442,
    "澄澈": 3443,
    "澆": 3444,
    "澆注": 3445,
    "澤": 3446,
    "澱": 3447,
    "激流": 3448,
    "濃": 3449,
    "濃厚": 3450,
    "濃度": 3451,
    "濃淡": 3452,
    "濃淡度": 3453,
    "濃濃": 3454,
    "濃烈": 3455,
    "濃的": 3456,
    "濃稠": 3457,
    "濃縮": 3458,
    "濃縮型": 3459,
    "濃縮感": 3460,
    "濃縮機": 3461,
    "濃縮液": 3462,
    "濃縮物": 3463,
    "濃郁": 3464,
    "濃郁且": 3465,
    "濃郁厚實": 3466,
    "濃郁感": 3467,
    "濃醇": 3468,
    "濕": 3469,
    "濕潤": 3470,
    "濕濾紙": 3471,
    "濕香": 3472,
    "濾": 3473,
    "濾器": 3474,
    "濾壓壺": 3475,
    "濾布": 3476,
    "濾式": 3477,
    "濾掉": 3478,
    "濾掛": 3479,
    "濾掛式": 3480,
    "濾杯": 3481,
    "濾杯則": 3482,
    "濾杯裡": 3483,
    "濾水壺": 3484,
    "濾泡": 3485,
    "濾泡式": 3486,
    "濾渣": 3487,
    "濾籃": 3488,
    "濾紙": 3489,
    "濾紙則": 3490,
    "濾紙屬": 3491,
    "濾紙會": 3492,
    "濾網": 3493,
    "濾蓋": 3494,
    "濾袋掛": 3495,
    "瀉": 3496,
    "火": 3497,
    "火上": 3498,
    "火候": 3499,
    "火源": 3500,
    "火焰": 3501,
    "炎熱": 3502,
    "炫耀": 3503,
    "為": 3504,
    "為主": 3505,
    "為何": 3506,
    "為佳": 3507,
    "為例": 3508,
    "為手": 3509,
    "為止": 3510,
    "烘烤": 3511,
    "烘焙": 3512,
    "烘豆": 3513,
    "烤": 3514,
    "焙": 3515,
    "焙度": 3516,
    "焙烤": 3517,
    "無": 3518,
    "無力": 3519,
    "無味": 3520,
    "無損": 3521,
    "無殘留": 3522,
    "無法": 3523,
    "無法產": 3524,
    "無濾紙": 3525,
    "無異味": 3526,
    "無論": 3527,
    "無障礙": 3528,
    "無需": 3529,
    "焦": 3530,
    "焦味": 3531,
    "焦慮": 3532,
    "焦澀": 3533,
    "焦糖": 3534,
    "焦苦": 3535,
    "然": 3536,
    "然後再": 3537,
    "然後將": 3538,
    "然後持續": 3539,
    "然後用": 3540,
    "然而": 3541,
    "煙": 3542,
    "煩惱": 3543,
    "煮": 3544,
    "煮水": 3545,
    "煮沸": 3546,
    "煮沸法": 3547,
    "煮法": 3548,
    "煮頭": 3549,
    "熄滅": 3550,
    "熟悉": 3551,
    "熱": 3552,
    "熱下壺": 3553,
    "熱力": 3554,
    "熱力學": 3555,
    "熱度": 3556,
    "熱愛": 3557,
    "熱水": 3558,
    "熱水並": 3559,
    "熱水以": 3560,
    "熱水因": 3561,
    "熱水後靜置": 3562,
    "熱水悶": 3563,
    "熱水會": 3564,
    "熱水為": 3565,
    "熱沙": 3566,
    "熱源": 3567,
    "熱熱": 3568,
    "熱產生": 3569,
    "熱的": 3570,
    "熱能": 3571,
    "熱脹": 3572,
    "熱萃": 3573,
    "熱質": 3574,
    "熱量": 3575,
    "熱門": 3576,
    "熱開水": 3577,
    "熱騰騰": 3578,
    "燃木珈": 3579,
    "燃燒器": 3580,
    "燈": 3581,
    "燈加": 3582,
    "燈泡": 3583,
    "燒": 3584,
    "燒杯": 3585,
    "燒水": 3586,
    "燙傷": 3587,
    "營時": 3588,
    "營業用": 3589,
    "營造": 3590,
    "燻": 3591,
    "爆發性": 3592,
    "爐": 3593,
    "爐灶": 3594,
    "爬升": 3595,
    "牆": 3596,
    "版本": 3597,
    "牛奶": 3598,
    "牢固": 3599,
    "物": 3600,
    "物品": 3601,
    "物料": 3602,
    "物理": 3603,
    "物質": 3604,
    "特仕版": 3605,
    "特別": 3606,
    "特徵": 3607,
    "特性": 3608,
    "特技": 3609,
    "特有": 3610,
    "特殊": 3611,
    "特色": 3612,
    "特調": 3613,
    "特質": 3614,
    "特選中": 3615,
    "特點": 3616,
    "犯": 3617,
    "狀": 3618,
    "狀地": 3619,
    "狀態": 3620,
    "狀況": 3621,
    "獨一無二": 3622,
    "獨一無二且": 3623,
    "獨具": 3624,
    "獨家": 3625,
    "獨特": 3626,
    "獨特之處": 3627,
    "獨特風味": 3628,
    "獲": 3629,
    "獲得": 3630,
    "玄學": 3631,
    "率": 3632,
    "率時": 3633,
    "率討論": 3634,
    "玩家": 3635,
    "玻璃": 3636,
    "玻璃杯": 3637,
    "玻璃球": 3638,
    "玻璃瓶": 3639,
    "玻璃管": 3640,
    "珍貴": 3641,
    "現": 3642,
    "現代人": 3643,
    "現出": 3644,
    "現厚實": 3645,
    "現在": 3646,
    "現度": 3647,
    "現手": 3648,
    "現煮": 3649,
    "現磨": 3650,
    "現磨現": 3651,
    "現許": 3652,
    "現象": 3653,
    "球內": 3654,
    "理想": 3655,
    "理法": 3656,
    "理解": 3657,
    "理論": 3658,
    "琲": 3659,
    "琺瑯": 3660,
    "瑪奇朵": 3661,
    "環": 3662,
    "環保": 3663,
    "環保者": 3664,
    "環境": 3665,
    "環節": 3666,
    "瓜地": 3667,
    "瓶": 3668,
    "瓶身": 3669,
    "甘甜": 3670,
    "甘美": 3671,
    "甘苦": 3672,
    "甚至": 3673,
    "甜": 3674,
    "甜味": 3675,
    "甜度": 3676,
    "甜感": 3677,
    "甜感及": 3678,
    "甜美": 3679,
    "生成": 3680,
    "生活": 3681,
    "生理": 3682,
    "生產": 3683,
    "生產區域": 3684,
    "生疑": 3685,
    "生義式": 3686,
    "生豆": 3687,
    "生鮮": 3688,
    "產出": 3689,
    "產區": 3690,
    "產品": 3691,
    "產品還": 3692,
    "產地": 3693,
    "產生": 3694,
    "用": 3695,
    "用來": 3696,
    "用來量": 3697,
    "用到": 3698,
    "用力": 3699,
    "用同": 3700,
    "用極細": 3701,
    "用水": 3702,
    "用溫": 3703,
    "用熱水": 3704,
    "用繞": 3705,
    "用途": 3706,
    "用量": 3707,
    "由": 3708,
    "由傳": 3709,
    "由內": 3710,
    "由潔": 3711,
    "由濾器": 3712,
    "男": 3713,
    "男子": 3714,
    "界": 3715,
    "界大師": 3716,
    "界最受": 3717,
    "留下": 3718,
    "留出": 3719,
    "留在": 3720,
    "留意": 3721,
    "留有": 3722,
    "留言": 3723,
    "畢後再": 3724,
    "畢竟": 3725,
    "略嫌": 3726,
    "畫啥": 3727,
    "畫圈": 3728,
    "畫圓": 3729,
    "畫至": 3730,
    "畫蛇": 3731,
    "異": 3732,
    "異味": 3733,
    "當": 3734,
    "當下": 3735,
    "當下壺": 3736,
    "當中": 3737,
    "當他": 3738,
    "當作": 3739,
    "當你": 3740,
    "當你覺": 3741,
    "當我們": 3742,
    "當手": 3743,
    "當擾動": 3744,
    "當日": 3745,
    "當有": 3746,
    "當然": 3747,
    "當熱": 3748,
    "當粉": 3749,
    "當累": 3750,
    "疊": 3751,
    "疑慮": 3752,
    "疲憊": 3753,
    "瘋狂": 3754,
    "療": 3755,
    "癒": 3756,
    "登山": 3757,
    "發": 3758,
    "發出": 3759,
    "發展": 3760,
    "發揮": 3761,
    "發明": 3762,
    "發熱": 3763,
    "發現": 3764,
    "發生": 3765,
    "發酵": 3766,
    "白": 3767,
    "白砂糖": 3768,
    "白色": 3769,
    "白變": 3770,
    "百分之百": 3771,
    "百種": 3772,
    "百花": 3773,
    "百變": 3774,
    "的": 3775,
    "的壺": 3776,
    "的熱": 3777,
    "的關": 3778,
    "皆": 3779,
    "益友": 3780,
    "盎司": 3781,
    "盛接": 3782,
    "盛裝": 3783,
    "盛裝手": 3784,
    "盡": 3785,
    "盡情": 3786,
    "盡量": 3787,
    "目前": 3788,
    "目的": 3789,
    "目錄": 3790,
    "盲區": 3791,
    "盲測": 3792,
    "盲目": 3793,
    "直到": 3794,
    "直接": 3795,
    "直粉": 3796,
    "直至": 3797,
    "直觀": 3798,
    "相": 3799,
    "相似": 3800,
    "相信": 3801,
    "相反": 3802,
    "相同": 3803,
    "相宜": 3804,
    "相對": 3805,
    "相對溫": 3806,
    "相應": 3807,
    "相扣": 3808,
    "相比": 3809,
    "相當": 3810,
    "相符": 3811,
    "相較": 3812,
    "相配合": 3813,
    "相關": 3814,
    "省": 3815,
    "省略": 3816,
    "看": 3817,
    "看似": 3818,
    "看出": 3819,
    "看到": 3820,
    "看待": 3821,
    "看步昂": 3822,
    "看法": 3823,
    "看準": 3824,
    "看看": 3825,
    "看過": 3826,
    "真實": 3827,
    "真正": 3828,
    "真的": 3829,
    "真空": 3830,
    "眾多": 3831,
    "眾所": 3832,
    "瞬間": 3833,
    "知識": 3834,
    "知道": 3835,
    "短": 3836,
    "短則": 3837,
    "短時間": 3838,
    "短會": 3839,
    "短視": 3840,
    "砂糖": 3841,
    "研磨": 3842,
    "研磨成粉": 3843,
    "研究所": 3844,
    "破": 3845,
    "破壞": 3846,
    "破裂": 3847,
    "破解": 3848,
    "砸": 3849,
    "硝基": 3850,
    "硫酸": 3851,
    "硬度": 3852,
    "硬水": 3853,
    "硬派": 3854,
    "碎裂": 3855,
    "碟": 3856,
    "碰到": 3857,
    "碳酸": 3858,
    "確保": 3859,
    "確保壺": 3860,
    "確保熱": 3861,
    "確定": 3862,
    "確性": 3863,
    "確認": 3864,
    "磁吸快": 3865,
    "磅秤": 3866,
    "磨": 3867,
    "磨到": 3868,
    "磨好": 3869,
    "磨得": 3870,
    "磨成": 3871,
    "磨盤": 3872,
    "磨碎": 3873,
    "磨細": 3874,
    "磨至略": 3875,
    "磨豆": 3876,
    "磨豆時": 3877,
    "磨豆機": 3878,
    "礙": 3879,
    "礦物質": 3880,
    "示範濾杯": 3881,
    "社群": 3882,
    "祕": 3883,
    "神奇": 3884,
    "福音": 3885,
    "禪意": 3886,
    "秉直": 3887,
    "科學": 3888,
    "科學家": 3889,
    "科學感": 3890,
    "秒": 3891,
    "秒左右": 3892,
    "秘訣": 3893,
    "秤": 3894,
    "秤取": 3895,
    "移": 3896,
    "移動": 3897,
    "移去": 3898,
    "移開": 3899,
    "移除": 3900,
    "稀釋": 3901,
    "程": 3902,
    "程序": 3903,
    "程度": 3904,
    "程產生": 3905,
    "稍": 3906,
    "稍低": 3907,
    "稍弱": 3908,
    "稍微": 3909,
    "種": 3910,
    "種常見": 3911,
    "種形": 3912,
    "種手": 3913,
    "種的": 3914,
    "種經典": 3915,
    "種類": 3916,
    "稱": 3917,
    "稱作": 3918,
    "稱為": 3919,
    "積": 3920,
    "積存": 3921,
    "積木": 3922,
    "積水": 3923,
    "積減": 3924,
    "積越": 3925,
    "穩": 3926,
    "穩且": 3927,
    "穩定": 3928,
    "穩定度": 3929,
    "穩重": 3930,
    "穫": 3931,
    "究竟": 3932,
    "空氣": 3933,
    "空氣層": 3934,
    "空洞": 3935,
    "空濾紙": 3936,
    "空間": 3937,
    "空隙": 3938,
    "穿透": 3939,
    "穿過": 3940,
    "突出": 3941,
    "突破": 3942,
    "竅": 3943,
    "竅門": 3944,
    "立刻": 3945,
    "立即": 3946,
    "立案": 3947,
    "笑": 3948,
    "符合": 3949,
    "第": 3950,
    "第一": 3951,
    "第一支": 3952,
    "第一次": 3953,
    "第一步": 3954,
    "第一段": 3955,
    "第一道": 3956,
    "第三": 3957,
    "第三次": 3958,
    "第二": 3959,
    "第二次": 3960,
    "第四次": 3961,
    "第四步": 3962,
    "等": 3963,
    "等到": 3964,
    "等待": 3965,
    "等等": 3966,
    "等級": 3967,
    "答案": 3968,
    "答臘": 3969,
    "策略": 3970,
    "管": 3971,
    "管子": 3972,
    "管理": 3973,
    "節奏": 3974,
    "節省": 3975,
    "範圍": 3976,
    "篇文章": 3977,
    "篩": 3978,
    "篩出": 3979,
    "篩子": 3980,
    "篩網": 3981,
    "簡便": 3982,
    "簡單": 3983,
    "簡易": 3984,
    "簡易步": 3985,
    "簡稱": 3986,
    "簡約": 3987,
    "籃子": 3988,
    "籤": 3989,
    "粉": 3990,
    "粉包": 3991,
    "粉器": 3992,
    "粉塊": 3993,
    "粉層": 3994,
    "粉床": 3995,
    "粉必須": 3996,
    "粉末": 3997,
    "粉水": 3998,
    "粉狀": 3999,
    "粉變": 4000,
    "粉變細": 4001,
    "粉越細": 4002,
    "粉重": 4003,
    "粉量": 4004,
    "粉針": 4005,
    "粉間": 4006,
    "粉面": 4007,
    "粉餅": 4008,
    "粒": 4009,
    "粒均勻": 4010,
    "粒度": 4011,
    "粒徑": 4012,
    "粒調": 4013,
    "粕": 4014,
    "粗": 4015,
    "粗一點": 4016,
    "粗度": 4017,
    "粗時": 4018,
    "粗暴": 4019,
    "粗水": 4020,
    "粗海鹽": 4021,
    "粗磨": 4022,
    "粗細": 4023,
    "粗細始": 4024,
    "粗細度": 4025,
    "粗細約": 4026,
    "粗鹽": 4027,
    "精": 4028,
    "精品": 4029,
    "精妙": 4030,
    "精密": 4031,
    "精專": 4032,
    "精準": 4033,
    "精準度": 4034,
    "精準性": 4035,
    "精確": 4036,
    "精神": 4037,
    "精細": 4038,
    "精華": 4039,
    "精華風味": 4040,
    "精髓": 4041,
    "糖": 4042,
    "糟糕": 4043,
    "系": 4044,
    "系列": 4045,
    "系統": 4046,
    "糾結成": 4047,
    "約": 4048,
    "約細": 4049,
    "約轉": 4050,
    "紅茶": 4051,
    "紅蘋": 4052,
    "紋路": 4053,
    "純": 4054,
    "純水": 4055,
    "純水極": 4056,
    "純淨": 4057,
    "純粹": 4058,
    "紙則": 4059,
    "紙味": 4060,
    "紙和": 4061,
    "紙壁": 4062,
    "紙張": 4063,
    "紙張味": 4064,
    "紙漿": 4065,
    "紙濾網": 4066,
    "紙質": 4067,
    "紙過": 4068,
    "級": 4069,
    "紮": 4070,
    "累積": 4071,
    "細": 4072,
    "細一點": 4073,
    "細些": 4074,
    "細口": 4075,
    "細口壺": 4076,
    "細嘴": 4077,
    "細嘴壺": 4078,
    "細小": 4079,
    "細小顆": 4080,
    "細心": 4081,
    "細沙之間": 4082,
    "細磨": 4083,
    "細節": 4084,
    "細粉": 4085,
    "細粉量": 4086,
    "細細": 4087,
    "細網": 4088,
    "細線": 4089,
    "細緩": 4090,
    "細胞": 4091,
    "細胞壁": 4092,
    "細膩": 4093,
    "細膩度": 4094,
    "細至": 4095,
    "細長": 4096,
    "終如": 4097,
    "終會": 4098,
    "終極": 4099,
    "終端": 4100,
    "終點": 4101,
    "組": 4102,
    "組合": 4103,
    "組成": 4104,
    "組推薦": 4105,
    "組織": 4106,
    "組裝": 4107,
    "結": 4108,
    "結合": 4109,
    "結合手": 4110,
    "結實": 4111,
    "結束": 4112,
    "結果": 4113,
    "結構": 4114,
    "結語": 4115,
    "絕佳": 4116,
    "絕對": 4117,
    "絕對會": 4118,
    "絕非": 4119,
    "給": 4120,
    "給喜歡": 4121,
    "統一": 4122,
    "統化": 4123,
    "統手": 4124,
    "統整": 4125,
    "統整給": 4126,
    "絲": 4127,
    "經典": 4128,
    "經常": 4129,
    "經歷": 4130,
    "經濟": 4131,
    "經營": 4132,
    "經由": 4133,
    "經過": 4134,
    "經驗": 4135,
    "維": 4136,
    "維持": 4137,
    "維護": 4138,
    "網": 4139,
    "網壓": 4140,
    "網會": 4141,
    "網狀": 4142,
    "網蓋": 4143,
    "緊": 4144,
    "緊密": 4145,
    "緊實": 4146,
    "緊張": 4147,
    "緊鎖": 4148,
    "線條": 4149,
    "緣": 4150,
    "緣並": 4151,
    "編輯": 4152,
    "緩下": 4153,
    "緩慢": 4154,
    "緩緩": 4155,
    "緩衝": 4156,
    "緩衝劑": 4157,
    "練": 4158,
    "練功": 4159,
    "練習": 4160,
    "緻": 4161,
    "縫隙": 4162,
    "縮": 4163,
    "縮短": 4164,
    "總": 4165,
    "總共分": 4166,
    "總會": 4167,
    "總有": 4168,
    "總注": 4169,
    "總結": 4170,
    "總覺": 4171,
    "總計": 4172,
    "總重": 4173,
    "繁多": 4174,
    "繁瑣": 4175,
    "繞": 4176,
    "繞圈": 4177,
    "繼續": 4178,
    "續": 4179,
    "纖維": 4180,
    "缺乏": 4181,
    "缺點": 4182,
    "置": 4183,
    "置入": 4184,
    "羅": 4185,
    "美味": 4186,
    "美好": 4187,
    "美妙": 4188,
    "美式": 4189,
    "義": 4190,
    "義式": 4191,
    "習個": 4192,
    "習慣": 4193,
    "習手": 4194,
    "翻": 4195,
    "翻滾": 4196,
    "老": 4197,
    "老鼠": 4198,
    "考慮": 4199,
    "考量": 4200,
    "考驗": 4201,
    "考驗手": 4202,
    "者": 4203,
    "而": 4204,
    "而且": 4205,
    "而來": 4206,
    "而外": 4207,
    "而定": 4208,
    "而手": 4209,
    "而是": 4210,
    "而水": 4211,
    "而水溫": 4212,
    "而濾": 4213,
    "而濾杯": 4214,
    "而產生": 4215,
    "而義式": 4216,
    "而膨脹": 4217,
    "而言": 4218,
    "而購": 4219,
    "耐心": 4220,
    "耐用": 4221,
    "耗材": 4222,
    "耳掛": 4223,
    "耶加雪菲": 4224,
    "耶加雪菲時": 4225,
    "聊聊": 4226,
    "聖": 4227,
    "聚集": 4228,
    "聰明": 4229,
    "職人": 4230,
    "聽": 4231,
    "聽起": 4232,
    "肋骨": 4233,
    "肌肉": 4234,
    "肯亞": 4235,
    "胃": 4236,
    "背後其": 4237,
    "背景": 4238,
    "能": 4239,
    "能凸": 4240,
    "能力": 4241,
    "能品": 4242,
    "能均勻": 4243,
    "能夠": 4244,
    "能帶": 4245,
    "能手": 4246,
    "能為": 4247,
    "能用": 4248,
    "能確": 4249,
    "能縮": 4250,
    "能過": 4251,
    "能達成": 4252,
    "能釋": 4253,
    "脂": 4254,
    "脂肪": 4255,
    "脆弱": 4256,
    "脆餅": 4257,
    "脈絡": 4258,
    "膠囊": 4259,
    "膠木": 4260,
    "膨脹": 4261,
    "自": 4262,
    "自來": 4263,
    "自動": 4264,
    "自始": 4265,
    "自家": 4266,
    "自己": 4267,
    "自我": 4268,
    "自然": 4269,
    "自煮": 4270,
    "自由": 4271,
    "自行": 4272,
    "自身": 4273,
    "臭味": 4274,
    "至": 4275,
    "至上": 4276,
    "至今": 4277,
    "至壺": 4278,
    "至於": 4279,
    "至終": 4280,
    "至關": 4281,
    "致力": 4282,
    "舀": 4283,
    "與": 4284,
    "興": 4285,
    "興起": 4286,
    "舉例": 4287,
    "舉地": 4288,
    "舊": 4289,
    "舒服": 4290,
    "舒適": 4291,
    "般": 4292,
    "般的": 4293,
    "般細長": 4294,
    "良好": 4295,
    "良師": 4296,
    "色澤": 4297,
    "芙": 4298,
    "芬芳": 4299,
    "芯": 4300,
    "芯刀盤": 4301,
    "花": 4302,
    "花式": 4303,
    "花果": 4304,
    "花生": 4305,
    "花較": 4306,
    "花開": 4307,
    "花香": 4308,
    "芳香": 4309,
    "若": 4310,
    "若喜": 4311,
    "若想": 4312,
    "若為": 4313,
    "若無膨脹": 4314,
    "若要": 4315,
    "若覺": 4316,
    "苦": 4317,
    "苦味": 4318,
    "苦感": 4319,
    "苦澀": 4320,
    "苦甜": 4321,
    "英國": 4322,
    "英文": 4323,
    "茉莉花": 4324,
    "茶": 4325,
    "茶壺": 4326,
    "草本": 4327,
    "莊園": 4328,
    "莓類": 4329,
    "莫過": 4330,
    "萃取": 4331,
    "萃取液": 4332,
    "萬一產品": 4333,
    "萬元": 4334,
    "萬無一失": 4335,
    "萬用": 4336,
    "萬變": 4337,
    "落": 4338,
    "落下": 4339,
    "落入": 4340,
    "落定": 4341,
    "落水": 4342,
    "著": 4343,
    "著一種": 4344,
    "著名": 4345,
    "著手": 4346,
    "著迷": 4347,
    "蒸": 4348,
    "蒸氣": 4349,
    "蒸氣壓": 4350,
    "蒸汽": 4351,
    "蒸發": 4352,
    "蒸階段": 4353,
    "蒸餾水": 4354,
    "蓋": 4355,
    "蓋上": 4356,
    "蓋子": 4357,
    "蓬勃": 4358,
    "薄": 4359,
    "薄一點": 4360,
    "藉以": 4361,
    "藉此": 4362,
    "藉由": 4363,
    "藍山": 4364,
    "藏私": 4365,
    "藝妓": 4366,
    "藝術": 4367,
    "藝術感": 4368,
    "藥劑": 4369,
    "蘇門": 4370,
    "蘊藏": 4371,
    "處": 4372,
    "處理": 4373,
    "號": 4374,
    "虹吸": 4375,
    "虹吸式": 4376,
    "虹吸管": 4377,
    "蛋白": 4378,
    "蜂巢": 4379,
    "蜂蜜": 4380,
    "蜜處理": 4381,
    "蜻蜓": 4382,
    "融入": 4383,
    "融化": 4384,
    "融合": 4385,
    "螺旋": 4386,
    "蠟燭": 4387,
    "行悶": 4388,
    "行手": 4389,
    "行都": 4390,
    "衍生": 4391,
    "術": 4392,
    "術語": 4393,
    "衛": 4394,
    "衛生": 4395,
    "衝出": 4396,
    "衝勁": 4397,
    "衝高": 4398,
    "衣索": 4399,
    "表": 4400,
    "表格": 4401,
    "表演": 4402,
    "表現": 4403,
    "表示": 4404,
    "表達": 4405,
    "表面": 4406,
    "袋": 4407,
    "被": 4408,
    "被譽": 4409,
    "裂縫": 4410,
    "裏": 4411,
    "補充": 4412,
    "補滿": 4413,
    "裝上": 4414,
    "裝備": 4415,
    "裝好": 4416,
    "裝有": 4417,
    "裝滿": 4418,
    "裝滿水": 4419,
    "裝置": 4420,
    "裝進": 4421,
    "裡": 4422,
    "裡有": 4423,
    "裡的": 4424,
    "裡面": 4425,
    "製": 4426,
    "複": 4427,
    "褐色": 4428,
    "要": 4429,
    "要夠": 4430,
    "要悶": 4431,
    "要是": 4432,
    "要求": 4433,
    "要用": 4434,
    "要確": 4435,
    "要素": 4436,
    "要花": 4437,
    "要調": 4438,
    "要點": 4439,
    "見": 4440,
    "見仁見": 4441,
    "規則": 4442,
    "規定": 4443,
    "規格": 4444,
    "規模": 4445,
    "視": 4446,
    "視個": 4447,
    "視情況": 4448,
    "視為": 4449,
    "視覺": 4450,
    "視野": 4451,
    "親": 4452,
    "親手": 4453,
    "覺得": 4454,
    "觀察": 4455,
    "觀察到": 4456,
    "觀察水": 4457,
    "觀察注": 4458,
    "觀察電子": 4459,
    "觀念": 4460,
    "觀念加": 4461,
    "觀眾": 4462,
    "觀賞性": 4463,
    "角度": 4464,
    "角色": 4465,
    "解": 4466,
    "解手": 4467,
    "解救": 4468,
    "解析": 4469,
    "解決": 4470,
    "解釋": 4471,
    "觸": 4472,
    "訂": 4473,
    "計來": 4474,
    "計來確": 4475,
    "計時": 4476,
    "計時器": 4477,
    "計算": 4478,
    "計較": 4479,
    "計輔助": 4480,
    "訊": 4481,
    "討手": 4482,
    "討論": 4483,
    "訓練": 4484,
    "訓練手": 4485,
    "記住": 4486,
    "記得": 4487,
    "記得將": 4488,
    "記憶": 4489,
    "記憶庫": 4490,
    "記錄": 4491,
    "訣": 4492,
    "訣竅": 4493,
    "設備": 4494,
    "設備過": 4495,
    "設定": 4496,
    "設有": 4497,
    "設計": 4498,
    "許多": 4499,
    "許多人": 4500,
    "註": 4501,
    "評估": 4502,
    "評分": 4503,
    "評測": 4504,
    "評鑑": 4505,
    "詞": 4506,
    "試": 4507,
    "試手": 4508,
    "試斷": 4509,
    "試用": 4510,
    "試著": 4511,
    "試試": 4512,
    "試酸香": 4513,
    "試飲": 4514,
    "試驗": 4515,
    "話": 4516,
    "該": 4517,
    "詳細": 4518,
    "認為": 4519,
    "認真": 4520,
    "認粉": 4521,
    "認識": 4522,
    "認識義式": 4523,
    "語": 4524,
    "語言": 4525,
    "語速": 4526,
    "誠心": 4527,
    "誤並": 4528,
    "說": 4529,
    "說明": 4530,
    "說法": 4531,
    "說粕": 4532,
    "誰": 4533,
    "課": 4534,
    "課程": 4535,
    "調": 4536,
    "調低": 4537,
    "調性": 4538,
    "調控": 4539,
    "調整": 4540,
    "調節": 4541,
    "調粗": 4542,
    "調細": 4543,
    "調至": 4544,
    "調配": 4545,
    "調高": 4546,
    "談論": 4547,
    "請": 4548,
    "請務必": 4549,
    "請永遠": 4550,
    "論述": 4551,
    "論點": 4552,
    "講究": 4553,
    "證明": 4554,
    "變": 4555,
    "變化": 4556,
    "變因": 4557,
    "變大師": 4558,
    "變得": 4559,
    "變慢": 4560,
    "變成": 4561,
    "變換": 4562,
    "變數": 4563,
    "變明顯": 4564,
    "變淡": 4565,
    "變澀": 4566,
    "變緩慢": 4567,
    "變苦": 4568,
    "變酸": 4569,
    "變量": 4570,
    "變長": 4571,
    "變風味": 4572,
    "讓": 4573,
    "讓壺": 4574,
    "讓後續": 4575,
    "讓熱": 4576,
    "谷": 4577,
    "谷哲": 4578,
    "豆": 4579,
    "豆來": 4580,
    "豆匙": 4581,
    "豆單": 4582,
    "豆子": 4583,
    "豆展": 4584,
    "豆有": 4585,
    "豆機": 4586,
    "豆款": 4587,
    "豆用": 4588,
    "豆種": 4589,
    "豆粉": 4590,
    "豆質": 4591,
    "豆量": 4592,
    "豆開始": 4593,
    "豐富": 4594,
    "豔": 4595,
    "負責": 4596,
    "負責容納": 4597,
    "負責將": 4598,
    "貢獻": 4599,
    "販售": 4600,
    "買": 4601,
    "買來": 4602,
    "買來源": 4603,
    "買到": 4604,
    "費放上": 4605,
    "費用": 4606,
    "費者": 4607,
    "貼": 4608,
    "貼合": 4609,
    "貼合杯": 4610,
    "資": 4611,
    "資深": 4612,
    "資源": 4613,
    "資訊": 4614,
    "資訊僅": 4615,
    "賞味期": 4616,
    "賞性": 4617,
    "賞用": 4618,
    "質": 4619,
    "質優良": 4620,
    "質地": 4621,
    "質感": 4622,
    "質會": 4623,
    "質量": 4624,
    "購入": 4625,
    "購手": 4626,
    "購置": 4627,
    "購買": 4628,
    "贏得": 4629,
    "走": 4630,
    "走向": 4631,
    "起": 4632,
    "起來": 4633,
    "起初": 4634,
    "起始": 4635,
    "起家": 4636,
    "起步": 4637,
    "起源": 4638,
    "起濾器": 4639,
    "起濾杯": 4640,
    "起高溫": 4641,
    "起點": 4642,
    "趁熱": 4643,
    "超": 4644,
    "超市": 4645,
    "超過": 4646,
    "超高": 4647,
    "越": 4648,
    "越久則": 4649,
    "越來": 4650,
    "越加": 4651,
    "越大": 4652,
    "越強": 4653,
    "越慢": 4654,
    "越濃": 4655,
    "越無法": 4656,
    "越短": 4657,
    "越細": 4658,
    "越苦": 4659,
    "越長": 4660,
    "越高": 4661,
    "趕時間": 4662,
    "趣味": 4663,
    "趨勢": 4664,
    "趨近": 4665,
    "足": 4666,
    "足夠": 4667,
    "足量": 4668,
    "距離": 4669,
    "跟": 4670,
    "跨越": 4671,
    "路": 4672,
    "路徑": 4673,
    "踩": 4674,
    "躍躍欲試": 4675,
    "身": 4676,
    "身均勻": 4677,
    "身為": 4678,
    "身體": 4679,
    "軍": 4680,
    "軟水": 4681,
    "較": 4682,
    "較佳": 4683,
    "較大": 4684,
    "較小顆": 4685,
    "較少": 4686,
    "較弱": 4687,
    "較強": 4688,
    "較快": 4689,
    "較慢": 4690,
    "較期": 4691,
    "較淡": 4692,
    "較濃": 4693,
    "較細": 4694,
    "較能": 4695,
    "較費心": 4696,
    "較重": 4697,
    "較長": 4698,
    "較難": 4699,
    "輕": 4700,
    "輕便": 4701,
    "輕巧": 4702,
    "輕扶壺": 4703,
    "輕拍": 4704,
    "輕易": 4705,
    "輕晃動": 4706,
    "輕柔": 4707,
    "輕的關": 4708,
    "輕盈": 4709,
    "輕而易": 4710,
    "輕輕": 4711,
    "輕輕旋": 4712,
    "輪": 4713,
    "輪來": 4714,
    "輪廓": 4715,
    "轉下壓": 4716,
    "轉以": 4717,
    "轉化": 4718,
    "轉型": 4719,
    "轉成": 4720,
    "轉折": 4721,
    "轉為": 4722,
    "轉粉": 4723,
    "轉至": 4724,
    "轉譯": 4725,
    "轉變": 4726,
    "辛辣": 4727,
    "辦": 4728,
    "農場": 4729,
    "迅速": 4730,
    "迎": 4731,
    "迎接": 4732,
    "近": 4733,
    "近乎零": 4734,
    "近代": 4735,
    "近年": 4736,
    "近幾年": 4737,
    "返回": 4738,
    "迫使": 4739,
    "迷": 4740,
    "迷人": 4741,
    "迷們": 4742,
    "迷茫": 4743,
    "追求": 4744,
    "追溯到": 4745,
    "送": 4746,
    "逆": 4747,
    "逆時針": 4748,
    "逆滲": 4749,
    "透徹": 4750,
    "透明": 4751,
    "透水": 4752,
    "透過": 4753,
    "逐次": 4754,
    "逐步": 4755,
    "逐段": 4756,
    "逐漸": 4757,
    "這": 4758,
    "這並": 4759,
    "這也": 4760,
    "這些": 4761,
    "這件": 4762,
    "這份": 4763,
    "這個": 4764,
    "這兩次": 4765,
    "這其實": 4766,
    "這包": 4767,
    "這取": 4768,
    "這四個": 4769,
    "這壓力": 4770,
    "這套": 4771,
    "這將": 4772,
    "這幾年": 4773,
    "這招": 4774,
    "這支": 4775,
    "這是": 4776,
    "這是將": 4777,
    "這時將": 4778,
    "這杯": 4779,
    "這樣": 4780,
    "這次": 4781,
    "這為": 4782,
    "這種": 4783,
    "這篇": 4784,
    "這純粹": 4785,
    "這背": 4786,
    "這能": 4787,
    "這裡": 4788,
    "這超": 4789,
    "這還": 4790,
    "這邊": 4791,
    "這部": 4792,
    "這都": 4793,
    "這項": 4794,
    "這麼": 4795,
    "通常": 4796,
    "通透性": 4797,
    "通過": 4798,
    "通道": 4799,
    "速": 4800,
    "速度": 4801,
    "速度慢": 4802,
    "速解": 4803,
    "造": 4804,
    "造型": 4805,
    "造就": 4806,
    "造成": 4807,
    "造酒": 4808,
    "連續": 4809,
    "進": 4810,
    "進下壺": 4811,
    "進入": 4812,
    "進去": 4813,
    "進均": 4814,
    "進濾": 4815,
    "進純": 4816,
    "進而": 4817,
    "進而導致": 4818,
    "進行": 4819,
    "進行後續": 4820,
    "進行悶": 4821,
    "進階": 4822,
    "進階指導": 4823,
    "逼": 4824,
    "逼使": 4825,
    "遇到": 4826,
    "運作": 4827,
    "運動": 4828,
    "運用": 4829,
    "過": 4830,
    "過久": 4831,
    "過加": 4832,
    "過去": 4833,
    "過壓實": 4834,
    "過多": 4835,
    "過度": 4836,
    "過強": 4837,
    "過後的": 4838,
    "過快": 4839,
    "過悶": 4840,
    "過慢": 4841,
    "過於稀釋": 4842,
    "過氣": 4843,
    "過濾": 4844,
    "過濾以": 4845,
    "過濾出": 4846,
    "過濾及": 4847,
    "過濾器": 4848,
    "過濾式": 4849,
    "過濾法": 4850,
    "過濾紙": 4851,
    "過的": 4852,
    "過短": 4853,
    "過程": 4854,
    "過程會": 4855,
    "過程釋": 4856,
    "過粗": 4857,
    "過細": 4858,
    "過萃": 4859,
    "過重": 4860,
    "過量": 4861,
    "過長": 4862,
    "過長則": 4863,
    "過頭": 4864,
    "過高": 4865,
    "道": 4866,
    "道菜": 4867,
    "達": 4868,
    "達到": 4869,
    "適": 4870,
    "適中": 4871,
    "適合": 4872,
    "適合喜": 4873,
    "適合帶": 4874,
    "適合手": 4875,
    "適合腸": 4876,
    "適合辦": 4877,
    "適合酸感": 4878,
    "適度": 4879,
    "適應": 4880,
    "適用": 4881,
    "適當": 4882,
    "適量": 4883,
    "遲": 4884,
    "選": 4885,
    "選擇": 4886,
    "選擇將": 4887,
    "選日": 4888,
    "選濾紙": 4889,
    "選用": 4890,
    "選豆": 4891,
    "選購": 4892,
    "選項": 4893,
    "選風味": 4894,
    "避免": 4895,
    "避開後段": 4896,
    "邀請": 4897,
    "還": 4898,
    "還一邊": 4899,
    "還不太穩": 4900,
    "還不會": 4901,
    "還來": 4902,
    "還將": 4903,
    "還差": 4904,
    "還搭載": 4905,
    "還是": 4906,
    "還會": 4907,
    "還有": 4908,
    "還能": 4909,
    "還要": 4910,
    "邊的": 4911,
    "邊緣": 4912,
    "邏輯": 4913,
    "那": 4914,
    "那些": 4915,
    "那支": 4916,
    "那磨": 4917,
    "那要": 4918,
    "那麼": 4919,
    "郊遊": 4920,
    "部分": 4921,
    "部落": 4922,
    "都": 4923,
    "都將": 4924,
    "都行": 4925,
    "配件": 4926,
    "配出": 4927,
    "配合": 4928,
    "配方": 4929,
    "配有": 4930,
    "配比": 4931,
    "配法": 4932,
    "酒漬": 4933,
    "酒精": 4934,
    "酒香": 4935,
    "酥脆": 4936,
    "酸": 4937,
    "酸值": 4938,
    "酸到": 4939,
    "酸味": 4940,
    "酸度": 4941,
    "酸性": 4942,
    "酸感": 4943,
    "酸甜": 4944,
    "酸苦": 4945,
    "酸質": 4946,
    "酸香": 4947,
    "酸鹼": 4948,
    "醇厚": 4949,
    "醇度": 4950,
    "醋栗": 4951,
    "醒腦": 4952,
    "醫學院": 4953,
    "釀": 4954,
    "釀造": 4955,
    "釀酒師": 4956,
    "釋": 4957,
    "釋出": 4958,
    "釋放": 4959,
    "釋放裡面": 4960,
    "釋放較": 4961,
    "釋放香氣": 4962,
    "重": 4963,
    "重力": 4964,
    "重在": 4965,
    "重塑": 4966,
    "重影": 4967,
    "重拳": 4968,
    "重新": 4969,
    "重現": 4970,
    "重要": 4971,
    "重要性": 4972,
    "重視": 4973,
    "重量": 4974,
    "重金": 4975,
    "重點": 4976,
    "量": 4977,
    "量匙": 4978,
    "量器": 4979,
    "量杯": 4980,
    "量測": 4981,
    "量足夠": 4982,
    "量身": 4983,
    "金": 4984,
    "金屬": 4985,
    "金屬壺": 4986,
    "金標準": 4987,
    "金澤式": 4988,
    "金黃色": 4989,
    "針對": 4990,
    "針由內": 4991,
    "針筒": 4992,
    "鈉": 4993,
    "鈣": 4994,
    "鉤": 4995,
    "鉤子": 4996,
    "銅": 4997,
    "銅壺": 4998,
    "銅或": 4999,
    "銷售": 5000,
    "鋁": 5001,
    "鋪": 5002,
    "鋸齒": 5003,
    "鋼": 5004,
    "鋼化": 5005,
    "錄下": 5006,
    "錐": 5007,
    "錐形": 5008,
    "錢": 5009,
    "錯": 5010,
    "錯且": 5011,
    "錯率": 5012,
    "錯誤": 5013,
    "鍵": 5014,
    "鎂": 5015,
    "鏽": 5016,
    "鐘": 5017,
    "鐘再": 5018,
    "鐘後再": 5019,
    "鐘秒": 5020,
    "鐵": 5021,
    "長": 5022,
    "門學問": 5023,
    "門設計": 5024,
    "閉時": 5025,
    "開": 5026,
    "開來": 5027,
    "開啟": 5028,
    "開始": 5029,
    "開始系": 5030,
    "開封": 5031,
    "開時": 5032,
    "開水": 5033,
    "開濾杯": 5034,
    "開關": 5035,
    "開階段": 5036,
    "間": 5037,
    "間斷": 5038,
    "間歇性": 5039,
    "閥門": 5040,
    "閥門關": 5041,
    "閱數": 5042,
    "閱讀": 5043,
    "閱讀量": 5044,
    "關": 5045,
    "關於": 5046,
    "關於悶": 5047,
    "關於產區": 5048,
    "關於風味": 5049,
    "關注": 5050,
    "關鍵": 5051,
    "關閉": 5052,
    "防止": 5053,
    "防水": 5054,
    "阻力": 5055,
    "阻塞": 5056,
    "阻礙": 5057,
    "阿拉比": 5058,
    "附": 5059,
    "降低": 5060,
    "降低成本": 5061,
    "降溫": 5062,
    "降至": 5063,
    "限制": 5064,
    "限度": 5065,
    "除": 5066,
    "除了": 5067,
    "除掉": 5068,
    "除此之外": 5069,
    "除濾器": 5070,
    "除非": 5071,
    "陰涼": 5072,
    "陶瓷": 5073,
    "陽春": 5074,
    "階段": 5075,
    "隔": 5076,
    "隔熱": 5077,
    "隔開": 5078,
    "隔間": 5079,
    "隔離": 5080,
    "隨": 5081,
    "隨地": 5082,
    "隨後將": 5083,
    "隨後透過": 5084,
    "隨心": 5085,
    "隨手": 5086,
    "隨時": 5087,
    "隨溫度": 5088,
    "隨著": 5089,
    "隨身": 5090,
    "隱形": 5091,
    "隱藏": 5092,
    "隱身": 5093,
    "雀躍的": 5094,
    "雅": 5095,
    "集中": 5096,
    "集粉": 5097,
    "雖": 5098,
    "雖然": 5099,
    "雖然會": 5100,
    "雖說": 5101,
    "雙杯": 5102,
    "雙軌": 5103,
    "雙軸承": 5104,
    "雙重": 5105,
    "雜": 5106,
    "雜但": 5107,
    "雜味": 5108,
    "雜多變": 5109,
    "雜度": 5110,
    "雜的": 5111,
    "雜質": 5112,
    "離": 5113,
    "離子": 5114,
    "難": 5115,
    "難以": 5116,
    "難度": 5117,
    "難題": 5118,
    "雪菲產區": 5119,
    "零": 5120,
    "雷": 5121,
    "電力": 5122,
    "電動": 5123,
    "電動式": 5124,
    "電子": 5125,
    "電式": 5126,
    "電池": 5127,
    "需": 5128,
    "需動手": 5129,
    "需動腦": 5130,
    "需將": 5131,
    "需標記": 5132,
    "需求": 5133,
    "需注意": 5134,
    "需添": 5135,
    "需用": 5136,
    "需約": 5137,
    "需維持": 5138,
    "需花費": 5139,
    "需要": 5140,
    "需視": 5141,
    "需調": 5142,
    "需長": 5143,
    "震動": 5144,
    "震盪": 5145,
    "露營": 5146,
    "露營者": 5147,
    "靈敏": 5148,
    "靈活": 5149,
    "靈魂": 5150,
    "靜置": 5151,
    "非": 5152,
    "非常": 5153,
    "非洲": 5154,
    "靠": 5155,
    "面向": 5156,
    "面積": 5157,
    "面積少": 5158,
    "革命性": 5159,
    "革新": 5160,
    "響": 5161,
    "頂級": 5162,
    "頂部": 5163,
    "項目": 5164,
    "順位": 5165,
    "順便": 5166,
    "順口": 5167,
    "順序": 5168,
    "順手": 5169,
    "順時": 5170,
    "順時針": 5171,
    "順着": 5172,
    "預備": 5173,
    "預先": 5174,
    "預定": 5175,
    "預浸": 5176,
    "預濕濾紙": 5177,
    "預熱": 5178,
    "預熱後記": 5179,
    "預熱法": 5180,
    "預熱濾杯": 5181,
    "預熱用": 5182,
    "預熱過": 5183,
    "預留": 5184,
    "預磨": 5185,
    "預算": 5186,
    "預算來": 5187,
    "預計": 5188,
    "預計將": 5189,
    "預設": 5190,
    "頗": 5191,
    "領域": 5192,
    "頸": 5193,
    "頻道": 5194,
    "顆粒": 5195,
    "顆粒會": 5196,
    "顆粒過": 5197,
    "額外": 5198,
    "顏色": 5199,
    "願意": 5200,
    "類": 5201,
    "類似": 5202,
    "類似細": 5203,
    "類型": 5204,
    "顧名": 5205,
    "顧問": 5206,
    "顯": 5207,
    "顯前": 5208,
    "顯示": 5209,
    "顯著": 5210,
    "風": 5211,
    "風味": 5212,
    "風味並": 5213,
    "風味來": 5214,
    "風味個": 5215,
    "風味則": 5216,
    "風味層": 5217,
    "風味時": 5218,
    "風味會": 5219,
    "風味物": 5220,
    "風味物質": 5221,
    "風味絕": 5222,
    "風味能": 5223,
    "風味表現": 5224,
    "風味釋": 5225,
    "風土": 5226,
    "風壺": 5227,
    "風式": 5228,
    "風情": 5229,
    "風暴": 5230,
    "風格": 5231,
    "風潮": 5232,
    "風貌": 5233,
    "風險": 5234,
    "風靡": 5235,
    "飄起": 5236,
    "飄起並": 5237,
    "飛馬": 5238,
    "食品": 5239,
    "食材": 5240,
    "食材來": 5241,
    "食用": 5242,
    "飲": 5243,
    "飲品": 5244,
    "飲料": 5245,
    "飲用": 5246,
    "飲用者": 5247,
    "飽": 5248,
    "飽滿": 5249,
    "餅": 5250,
    "餅狀": 5251,
    "餐館": 5252,
    "餘韻": 5253,
    "館": 5254,
    "館到": 5255,
    "首先": 5256,
    "首創": 5257,
    "首次": 5258,
    "首要": 5259,
    "首選": 5260,
    "香": 5261,
    "香味": 5262,
    "香料": 5263,
    "香氣": 5264,
    "香氣會": 5265,
    "香港": 5266,
    "香精": 5267,
    "香郁": 5268,
    "香醇": 5269,
    "香風味": 5270,
    "香香": 5271,
    "馥郁": 5272,
    "馬": 5273,
    "騰後": 5274,
    "驅動": 5275,
    "驗": 5276,
    "驗證": 5277,
    "驚": 5278,
    "驚人": 5279,
    "驚喜": 5280,
    "驚訝": 5281,
    "驟": 5282,
    "驟中": 5283,
    "驟教學": 5284,
    "驟稱": 5285,
    "驟講": 5286,
    "體": 5287,
    "體乾淨": 5288,
    "體積": 5289,
    "體驗": 5290,
    "高": 5291,
    "高低": 5292,
    "高價": 5293,
    "高品質": 5294,
    "高壓": 5295,
    "高展": 5296,
    "高度": 5297,
    "高手": 5298,
    "高效": 5299,
    "高效率": 5300,
    "高昂": 5301,
    "高時": 5302,
    "高深": 5303,
    "高溫": 5304,
    "高濃度": 5305,
    "高貴": 5306,
    "高超": 5307,
    "高階磨": 5308,
    "鬆": 5309,
    "魅力": 5310,
    "魔咒": 5311,
    "鮮": 5312,
    "鮮出": 5313,
    "鮮度": 5314,
    "鮮明": 5315,
    "鹼度": 5316,
    "鹽": 5317,
    "麵": 5318,
    "麻煩": 5319,
    "麻纖": 5320,
    "黃": 5321,
    "黑": 5322,
    "黑箱": 5323,
    "點": 5324,
    "點到": 5325,
    "點及": 5326,
    "點我": 5327,
    "點水式": 5328,
    "點滴": 5329,
    "點滴式": 5330,
    "點滴法": 5331,
    "點苦": 5332,
    "點開始": 5333,
    "點點": 5334,
    "鼓勵": 5335,
    "齊放": 5336,
    "齊杯": 5337,
    "️": 5338,
    "！": 5339,
    "％": 5340,
    "＆": 5341,
    "（": 5342,
    "）": 5343,
    "＋": 5344,
    "，": 5345,
    "－": 5346,
    "／": 5347,
    "６": 5348,
    "：": 5349,
    "；": 5350,
    "＝": 5351,
    "＞": 5352,
    "？": 5353,
    "｜": 5354,
    "～": 5355,
    "📋": 5356,
    "🔎": 5357,
    "<UNK>": 0
  },
  "id_to_word": {
    "1": "\t",
    "2": "\n",
    "3": " ",
    "4": "&",
    "5": "(",
    "6": ")",
    "7": "*",
    "8": "+",
    "9": ",",
    "10": "-",
    "11": ".",
    "12": "/",
    "13": "0",
    "14": "0.1",
    "15": "00",
    "16": "05",
    "17": "07",
    "18": "08",
    "19": "09",
    "20": "1",
    "21": "1.5",
    "22": "1.68",
    "23": "10",
    "24": "100",
    "25": "100%",
    "26": "1000",
    "27": "10cc",
    "28": "11",
    "29": "110",
    "30": "12",
    "31": "120",
    "32": "120ml",
    "33": "12g",
    "34": "13",
    "35": "14",
    "36": "140",
    "37": "15",
    "38": "150",
    "39": "1500",
    "40": "150c",
    "41": "150g",
    "42": "150ppm",
    "43": "1550",
    "44": "15g",
    "45": "16",
    "46": "160",
    "47": "160c",
    "48": "16g",
    "49": "17",
    "50": "18",
    "51": "1800",
    "52": "180cc",
    "53": "180ml",
    "54": "18g",
    "55": "1Zpresso",
    "56": "1g",
    "57": "2",
    "58": "2.45",
    "59": "2.5",
    "60": "20",
    "61": "200",
    "62": "2000",
    "63": "2007",
    "64": "2008",
    "65": "200ml",
    "66": "2012",
    "67": "2016",
    "68": "2017",
    "69": "2019",
    "70": "2022",
    "71": "2023",
    "72": "2024",
    "73": "2025",
    "74": "20g",
    "75": "24",
    "76": "240",
    "77": "240ml",
    "78": "25",
    "79": "250",
    "80": "250g",
    "81": "250ppm",
    "82": "27",
    "83": "28",
    "84": "3",
    "85": "3.5",
    "86": "30",
    "87": "300",
    "88": "300c",
    "89": "300ml",
    "90": "30g",
    "91": "320c",
    "92": "35",
    "93": "36g",
    "94": "3mins",
    "95": "4",
    "96": "40",
    "97": "40%",
    "98": "40.1",
    "99": "400",
    "100": "4000",
    "101": "40ml",
    "102": "45",
    "103": "4500",
    "104": "48",
    "105": "5",
    "106": "50",
    "107": "50ml",
    "108": "50ppm",
    "109": "6",
    "110": "60",
    "111": "60%",
    "112": "6000",
    "113": "60ml",
    "114": "68",
    "115": "68.6",
    "116": "7",
    "117": "700",
    "118": "7000",
    "119": "70ml",
    "120": "8",
    "121": "80",
    "122": "82",
    "123": "85",
    "124": "86",
    "125": "88",
    "126": "9",
    "127": "90",
    "128": "91",
    "129": "92",
    "130": "93",
    "131": "94",
    "132": "95",
    "133": "96",
    "134": "98",
    "135": "98%",
    "136": "99",
    "137": "9bar",
    "138": ":",
    "139": "<",
    "140": "=",
    "141": ">",
    "142": "?",
    "143": "A",
    "144": "A3",
    "145": "A4",
    "146": "A5",
    "147": "AI",
    "148": "ALL",
    "149": "AeroPress",
    "150": "Aeropress",
    "151": "Aquacode",
    "152": "B",
    "153": "BWT",
    "154": "Baking",
    "155": "Barista",
    "156": "Bed",
    "157": "Bialetti",
    "158": "Bicarbonate",
    "159": "Bitter",
    "160": "Bloom",
    "161": "Blooming",
    "162": "Bodum",
    "163": "Body",
    "164": "Brew",
    "165": "Brewer",
    "166": "Brewers",
    "167": "Buffer",
    "168": "C",
    "169": "CO",
    "170": "COFFEE",
    "171": "CP",
    "172": "Calcium",
    "173": "Cappuccino",
    "174": "Capsule",
    "175": "Channeling",
    "176": "Chemex",
    "177": "Clever",
    "178": "Co",
    "179": "Coffee",
    "180": "CoffeeRoast",
    "181": "Cold",
    "182": "Contents",
    "183": "Crema",
    "184": "Cup",
    "185": "Cupping",
    "186": "DIY",
    "187": "Dark",
    "188": "Dialing",
    "189": "Diffusion",
    "190": "Dissolution",
    "191": "Distribution",
    "192": "Drip",
    "193": "Dripper",
    "194": "Editorial",
    "195": "Epsom",
    "196": "Espresso",
    "197": "EspressoGC",
    "198": "FAQ",
    "199": "Femobook",
    "200": "Filter",
    "201": "Fine",
    "202": "Flat",
    "203": "Freeze",
    "204": "French",
    "205": "FrenchPress",
    "206": "Fuelwood",
    "207": "Geek",
    "208": "Geisha",
    "209": "Grind",
    "210": "Hario",
    "211": "Hoffmann",
    "212": "Hustle",
    "213": "Hybrid",
    "214": "Ice",
    "215": "Immersion",
    "216": "Inverted",
    "217": "J",
    "218": "James",
    "219": "Java",
    "220": "JavaPresse",
    "221": "Jimseven",
    "222": "K",
    "223": "KINTO",
    "224": "KO",
    "225": "Kalita",
    "226": "Kallita",
    "227": "Kasuya",
    "228": "Kona",
    "229": "Latte",
    "230": "Light",
    "231": "Machine",
    "232": "Magnesium",
    "233": "Mass",
    "234": "Matt",
    "235": "May",
    "236": "Melior",
    "237": "Mellita",
    "238": "Mile",
    "239": "Moka",
    "240": "NO",
    "241": "Over",
    "242": "Percolation",
    "243": "Perger",
    "244": "Picture",
    "245": "Pot",
    "246": "Pour",
    "247": "Press",
    "248": "Pressure",
    "249": "Q1",
    "250": "Q2",
    "251": "Q3",
    "252": "Q4",
    "253": "RO",
    "254": "ROK",
    "255": "Roast",
    "256": "Roasters",
    "257": "S",
    "258": "SCA",
    "259": "SCS",
    "260": "SLOW",
    "261": "STYLE",
    "262": "Salt",
    "263": "Siphon",
    "264": "Size",
    "265": "Soda",
    "266": "Sour",
    "267": "Space",
    "268": "Spray",
    "269": "Square",
    "270": "Swirl",
    "271": "Syphon",
    "272": "TDS",
    "273": "Tamping",
    "274": "Team",
    "275": "Technique",
    "276": "Temperature",
    "277": "Tetsu",
    "278": "Thermal",
    "279": "Third",
    "280": "Tips",
    "281": "Turbulence",
    "282": "Turkish",
    "283": "Ultimate",
    "284": "Ultra",
    "285": "Under",
    "286": "V60",
    "287": "Vacuum",
    "288": "WBC",
    "289": "WBrC",
    "290": "Water",
    "291": "Wave",
    "292": "Wetting",
    "293": "World",
    "294": "Yama",
    "295": "YouTube",
    "296": "Z",
    "297": "ZP6",
    "298": "[",
    "299": "]",
    "300": "a",
    "301": "aeropress",
    "302": "agitation",
    "303": "b",
    "304": "bar",
    "305": "bed",
    "306": "bloom",
    "307": "brew",
    "308": "brewer",
    "309": "brewing",
    "310": "c",
    "311": "cezve",
    "312": "coffee",
    "313": "cold",
    "314": "crema",
    "315": "device",
    "316": "drying",
    "317": "espresso",
    "318": "extraction",
    "319": "flatness",
    "320": "g",
    "321": "gas",
    "322": "ibrik",
    "323": "icoffee",
    "324": "in",
    "325": "ipa",
    "326": "java",
    "327": "machine",
    "328": "method",
    "329": "mins",
    "330": "nitro",
    "331": "of",
    "332": "over",
    "333": "pour",
    "334": "ppm",
    "335": "press",
    "336": "stove",
    "337": "vs",
    "338": "|",
    "339": "~",
    "340": "°",
    "341": "̅",
    "342": "​",
    "343": "–",
    "344": "—",
    "345": "“",
    "346": "”",
    "347": "₂",
    "348": "℃",
    "349": "→",
    "350": "─",
    "351": "◎",
    "352": "★",
    "353": "☆",
    "354": "✨",
    "355": "　",
    "356": "、",
    "357": "。",
    "358": "《",
    "359": "》",
    "360": "「",
    "361": "」",
    "362": "【",
    "363": "】",
    "364": "の",
    "365": "ㄛ",
    "366": "一",
    "367": "一下",
    "368": "一些",
    "369": "一份",
    "370": "一位",
    "371": "一來",
    "372": "一個",
    "373": "一個則",
    "374": "一個圓",
    "375": "一個壺",
    "376": "一倍",
    "377": "一側",
    "378": "一兩杯",
    "379": "一刀",
    "380": "一分",
    "381": "一切",
    "382": "一包",
    "383": "一匙",
    "384": "一半",
    "385": "一台",
    "386": "一同",
    "387": "一品",
    "388": "一場",
    "389": "一塊",
    "390": "一壺",
    "391": "一大",
    "392": "一天",
    "393": "一套",
    "394": "一定",
    "395": "一小",
    "396": "一小包",
    "397": "一層",
    "398": "一張",
    "399": "一手",
    "400": "一抹",
    "401": "一支",
    "402": "一整天",
    "403": "一旦",
    "404": "一杯",
    "405": "一柱",
    "406": "一根",
    "407": "一桶",
    "408": "一條",
    "409": "一樣",
    "410": "一次",
    "411": "一次性",
    "412": "一款",
    "413": "一步",
    "414": "一步步",
    "415": "一段",
    "416": "一注",
    "417": "一派",
    "418": "一滴",
    "419": "一滴水",
    "420": "一環",
    "421": "一瓶",
    "422": "一直",
    "423": "一種",
    "424": "一窺其",
    "425": "一筆",
    "426": "一篇",
    "427": "一粒",
    "428": "一致",
    "429": "一致性",
    "430": "一般",
    "431": "一般而言",
    "432": "一貫",
    "433": "一起",
    "434": "一路",
    "435": "一蹴可",
    "436": "一道",
    "437": "一達",
    "438": "一邊",
    "439": "一門",
    "440": "一開",
    "441": "一開始",
    "442": "一陣子",
    "443": "一項",
    "444": "一顆",
    "445": "一題",
    "446": "一香",
    "447": "一體化",
    "448": "一點",
    "449": "一點則",
    "450": "一點給",
    "451": "丁烷",
    "452": "七",
    "453": "三",
    "454": "三個",
    "455": "三合一",
    "456": "三大",
    "457": "三次",
    "458": "三段",
    "459": "三段式",
    "460": "三種",
    "461": "三階段",
    "462": "上",
    "463": "上下",
    "464": "上並",
    "465": "上則",
    "466": "上升",
    "467": "上壺",
    "468": "上層",
    "469": "上方",
    "470": "上會",
    "471": "上次",
    "472": "上流",
    "473": "上班族",
    "474": "上述",
    "475": "上部",
    "476": "下",
    "477": "下來",
    "478": "下列",
    "479": "下午",
    "480": "下午茶",
    "481": "下壓",
    "482": "下壺",
    "483": "下壺則",
    "484": "下層",
    "485": "下循環",
    "486": "下推",
    "487": "下方",
    "488": "下次",
    "489": "下滑",
    "490": "下濾網",
    "491": "下邊",
    "492": "下部",
    "493": "下降",
    "494": "下面",
    "495": "不",
    "496": "不一樣",
    "497": "不一致性",
    "498": "不中斷",
    "499": "不但",
    "500": "不佳",
    "501": "不便",
    "502": "不僅",
    "503": "不先",
    "504": "不再",
    "505": "不出",
    "506": "不到",
    "507": "不及",
    "508": "不受",
    "509": "不可",
    "510": "不可或缺",
    "511": "不同",
    "512": "不啻",
    "513": "不單",
    "514": "不均",
    "515": "不夠",
    "516": "不太膨脹",
    "517": "不失",
    "518": "不好",
    "519": "不如",
    "520": "不妨",
    "521": "不寫",
    "522": "不少",
    "523": "不帶",
    "524": "不建議",
    "525": "不必",
    "526": "不必要",
    "527": "不急不徐",
    "528": "不想",
    "529": "不敗款",
    "530": "不新鮮",
    "531": "不斷",
    "532": "不斷畫",
    "533": "不明",
    "534": "不易",
    "535": "不是",
    "536": "不時",
    "537": "不會",
    "538": "不會壞",
    "539": "不浸",
    "540": "不準",
    "541": "不用",
    "542": "不知",
    "543": "不確",
    "544": "不穩",
    "545": "不管",
    "546": "不絕",
    "547": "不經",
    "548": "不織",
    "549": "不習",
    "550": "不肖",
    "551": "不能",
    "552": "不良",
    "553": "不若手",
    "554": "不要",
    "555": "不討喜",
    "556": "不該",
    "557": "不論",
    "558": "不費力",
    "559": "不超過",
    "560": "不足",
    "561": "不過",
    "562": "不酸",
    "563": "不銹鋼",
    "564": "不錯",
    "565": "不間",
    "566": "不離",
    "567": "不需",
    "568": "且",
    "569": "且務必",
    "570": "且顆",
    "571": "世代",
    "572": "世界",
    "573": "並",
    "574": "並不",
    "575": "並不建議",
    "576": "並不會",
    "577": "並且",
    "578": "並以",
    "579": "並促",
    "580": "並分",
    "581": "並勤加",
    "582": "並可",
    "583": "並向",
    "584": "並因",
    "585": "並在",
    "586": "並均",
    "587": "並將",
    "588": "並帶",
    "589": "並從",
    "590": "並成",
    "591": "並把",
    "592": "並按壓",
    "593": "並擁",
    "594": "並攪",
    "595": "並散",
    "596": "並時",
    "597": "並有",
    "598": "並根據",
    "599": "並沒有",
    "600": "並減",
    "601": "並準備",
    "602": "並溫熱",
    "603": "並煮",
    "604": "並獲",
    "605": "並產生",
    "606": "並用熱",
    "607": "並盡快",
    "608": "並研發",
    "609": "並確",
    "610": "並結合",
    "611": "並要",
    "612": "並記",
    "613": "並試",
    "614": "並調整",
    "615": "並讓",
    "616": "並輕",
    "617": "並輕輕",
    "618": "並透過",
    "619": "並進入",
    "620": "並過",
    "621": "並釋",
    "622": "並重現",
    "623": "並開始",
    "624": "並非",
    "625": "並鼓勵",
    "626": "中",
    "627": "中以",
    "628": "中則",
    "629": "中南美洲",
    "630": "中南部",
    "631": "中均勻",
    "632": "中培",
    "633": "中央",
    "634": "中帶",
    "635": "中常",
    "636": "中後段",
    "637": "中心",
    "638": "中期",
    "639": "中段",
    "640": "中流",
    "641": "中深",
    "642": "中淺",
    "643": "中滿",
    "644": "中火",
    "645": "中焙則",
    "646": "中焙至",
    "647": "中焙豆",
    "648": "中產生",
    "649": "中等",
    "650": "中細",
    "651": "中經常",
    "652": "中裝入",
    "653": "中軸",
    "654": "中間",
    "655": "中顏色",
    "656": "主流",
    "657": "主要",
    "658": "主觀",
    "659": "主食",
    "660": "久",
    "661": "之",
    "662": "之一",
    "663": "之上",
    "664": "之中",
    "665": "之分",
    "666": "之前",
    "667": "之外",
    "668": "之後再",
    "669": "之後將",
    "670": "之後接",
    "671": "之後改",
    "672": "之所以",
    "673": "之放",
    "674": "之旅",
    "675": "之習慣",
    "676": "之處",
    "677": "之路",
    "678": "之過",
    "679": "之間",
    "680": "也",
    "681": "也展",
    "682": "也屬",
    "683": "也許",
    "684": "乾",
    "685": "乾時",
    "686": "乾淨",
    "687": "乾淨且",
    "688": "乾淨度",
    "689": "乾澀",
    "690": "乾燥",
    "691": "乾粉",
    "692": "乾貨",
    "693": "乾香",
    "694": "亂",
    "695": "了",
    "696": "了解",
    "697": "事",
    "698": "事先",
    "699": "事前",
    "700": "事實",
    "701": "事後稀釋",
    "702": "事變",
    "703": "事項",
    "704": "二",
    "705": "二次",
    "706": "二氧",
    "707": "二氧化碳",
    "708": "五",
    "709": "五次",
    "710": "五段",
    "711": "交代",
    "712": "交換",
    "713": "交給",
    "714": "亦",
    "715": "享受",
    "716": "享用",
    "717": "人",
    "718": "人人",
    "719": "人來",
    "720": "人們",
    "721": "人化",
    "722": "人士",
    "723": "人會",
    "724": "人為",
    "725": "人物",
    "726": "人群",
    "727": "人能",
    "728": "人體",
    "729": "什麼",
    "730": "什麼樣",
    "731": "今天",
    "732": "介紹",
    "733": "介紹僅",
    "734": "介紹常見",
    "735": "仍",
    "736": "仍然",
    "737": "仔細",
    "738": "他",
    "739": "付出",
    "740": "代表",
    "741": "代表性",
    "742": "令人",
    "743": "以",
    "744": "以上",
    "745": "以下",
    "746": "以便",
    "747": "以免",
    "748": "以其",
    "749": "以利",
    "750": "以剛",
    "751": "以及",
    "752": "以均",
    "753": "以外",
    "754": "以市",
    "755": "以常見",
    "756": "以平",
    "757": "以待",
    "758": "以手",
    "759": "以極",
    "760": "以產區",
    "761": "以畫圓",
    "762": "以當",
    "763": "以確",
    "764": "以粉",
    "765": "以繞",
    "766": "以評",
    "767": "以較",
    "768": "以適",
    "769": "以避開",
    "770": "以重",
    "771": "以電子",
    "772": "以風味",
    "773": "以點",
    "774": "仰賴",
    "775": "任何",
    "776": "任何人",
    "777": "任務",
    "778": "任意",
    "779": "份",
    "780": "份量",
    "781": "企圖",
    "782": "休息",
    "783": "估磨",
    "784": "估風味表現",
    "785": "伸而來",
    "786": "似",
    "787": "似義式",
    "788": "但",
    "789": "但別",
    "790": "但是",
    "791": "但水",
    "792": "但濾杯",
    "793": "但當",
    "794": "但要",
    "795": "但過",
    "796": "佈",
    "797": "位",
    "798": "位移",
    "799": "位置",
    "800": "低",
    "801": "低且",
    "802": "低價",
    "803": "低則",
    "804": "低擾動",
    "805": "低時",
    "806": "低水",
    "807": "低溫",
    "808": "低維護",
    "809": "低苦澀",
    "810": "低酸",
    "811": "住",
    "812": "住手",
    "813": "佔",
    "814": "何手",
    "815": "何謂",
    "816": "佛手柑",
    "817": "作",
    "818": "作出",
    "819": "作好",
    "820": "作成",
    "821": "作業",
    "822": "作為",
    "823": "作用",
    "824": "你",
    "825": "佳",
    "826": "佳的美",
    "827": "併",
    "828": "使",
    "829": "使得",
    "830": "使水",
    "831": "使濾紙",
    "832": "使用",
    "833": "使用方便",
    "834": "使用者",
    "835": "來",
    "836": "來判斷",
    "837": "來將",
    "838": "來悶",
    "839": "來杯",
    "840": "來源",
    "841": "來盛",
    "842": "來確",
    "843": "來練習",
    "844": "來裝",
    "845": "來調",
    "846": "例外",
    "847": "例如",
    "848": "侖",
    "849": "供",
    "850": "供電",
    "851": "依",
    "852": "依個",
    "853": "依序",
    "854": "依情況",
    "855": "依據",
    "856": "依然",
    "857": "依照",
    "858": "依賴用",
    "859": "依靠",
    "860": "便",
    "861": "便利",
    "862": "便利性",
    "863": "便宜",
    "864": "係",
    "865": "促成",
    "866": "促進",
    "867": "俐落",
    "868": "保",
    "869": "保存",
    "870": "保將",
    "871": "保持",
    "872": "保有",
    "873": "保母級",
    "874": "保水",
    "875": "保溫",
    "876": "保溫性",
    "877": "保留",
    "878": "保羅",
    "879": "保證",
    "880": "保護",
    "881": "保養",
    "882": "信任",
    "883": "信服",
    "884": "信譽",
    "885": "信賴",
    "886": "修正",
    "887": "個",
    "888": "個國家",
    "889": "個性",
    "890": "個產區",
    "891": "倍",
    "892": "們",
    "893": "倒",
    "894": "倒入",
    "895": "倒出",
    "896": "倒掉",
    "897": "倒水",
    "898": "倒粉",
    "899": "倒置",
    "900": "值",
    "901": "值得",
    "902": "值首選",
    "903": "假設",
    "904": "偏",
    "905": "偏向",
    "906": "偏好",
    "907": "偏愛的",
    "908": "偏水",
    "909": "偏淡",
    "910": "偏甜",
    "911": "偏細",
    "912": "偏細時",
    "913": "偏苦",
    "914": "偏酸",
    "915": "偏酸澀",
    "916": "偏重",
    "917": "偏高",
    "918": "做",
    "919": "做冰滴",
    "920": "做出",
    "921": "做到",
    "922": "做化學",
    "923": "做好",
    "924": "做成",
    "925": "做法",
    "926": "做起",
    "927": "做點",
    "928": "停",
    "929": "停止",
    "930": "停留",
    "931": "健康",
    "932": "側向",
    "933": "側邊",
    "934": "偶爾",
    "935": "偶爾想",
    "936": "偶爾會",
    "937": "備",
    "938": "備感",
    "939": "傳奇",
    "940": "傳統",
    "941": "傳遞",
    "942": "傾斜",
    "943": "僅",
    "944": "僅供",
    "945": "僅僅",
    "946": "僅由",
    "947": "僅適合",
    "948": "僅需",
    "949": "像",
    "950": "像是",
    "951": "像樣",
    "952": "價位",
    "953": "價格",
    "954": "價格大約",
    "955": "價格會",
    "956": "價錢會",
    "957": "儀式",
    "958": "儘",
    "959": "優",
    "960": "優先",
    "961": "優先級當",
    "962": "優劣",
    "963": "優勢",
    "964": "優秀",
    "965": "優缺點",
    "966": "優美",
    "967": "優良",
    "968": "優良且",
    "969": "優質",
    "970": "優雅",
    "971": "優點",
    "972": "儲存",
    "973": "元",
    "974": "元硬幣",
    "975": "元至",
    "976": "充分",
    "977": "充滿",
    "978": "充電版",
    "979": "先",
    "980": "先來",
    "981": "先倒",
    "982": "先將",
    "983": "先後順序",
    "984": "先悶",
    "985": "先浸",
    "986": "先為",
    "987": "先煮",
    "988": "先用",
    "989": "先用熱",
    "990": "先磨",
    "991": "先試",
    "992": "先釋",
    "993": "先養成",
    "994": "光滑",
    "995": "克",
    "996": "克小蘇",
    "997": "克數",
    "998": "克杯",
    "999": "克瀉",
    "1000": "克熱",
    "1001": "克熱水",
    "1002": "兌入",
    "1003": "免費",
    "1004": "兑入",
    "1005": "入",
    "1006": "入坑",
    "1007": "入後不",
    "1008": "入手",
    "1009": "入門",
    "1010": "入門手",
    "1011": "入門者",
    "1012": "內",
    "1013": "內不斷",
    "1014": "內容",
    "1015": "內容免",
    "1016": "內繞",
    "1017": "內置",
    "1018": "內衝",
    "1019": "內部",
    "1020": "內附",
    "1021": "全",
    "1022": "全世界",
    "1023": "全公開",
    "1024": "全台",
    "1025": "全攻略",
    "1026": "全數",
    "1027": "全新",
    "1028": "全機",
    "1029": "全球",
    "1030": "全程",
    "1031": "全系列",
    "1032": "全能",
    "1033": "全部",
    "1034": "全面",
    "1035": "兩",
    "1036": "兩個",
    "1037": "兩倍",
    "1038": "兩到",
    "1039": "兩大",
    "1040": "兩大機種",
    "1041": "兩套",
    "1042": "兩平匙",
    "1043": "兩杯",
    "1044": "兩次",
    "1045": "兩段",
    "1046": "兩瓶法",
    "1047": "兩百萬",
    "1048": "兩種",
    "1049": "兩者",
    "1050": "兩週",
    "1051": "公克",
    "1052": "公分",
    "1053": "公升",
    "1054": "公司",
    "1055": "公室",
    "1056": "公開",
    "1057": "六",
    "1058": "六大",
    "1059": "六種",
    "1060": "共",
    "1061": "共同",
    "1062": "其",
    "1063": "其中",
    "1064": "其他",
    "1065": "其宗",
    "1066": "其實",
    "1067": "其實手",
    "1068": "其往",
    "1069": "其特點",
    "1070": "其細長",
    "1071": "其風味",
    "1072": "其餘",
    "1073": "具",
    "1074": "具備",
    "1075": "具有",
    "1076": "具觀",
    "1077": "具閥",
    "1078": "具體",
    "1079": "具高",
    "1080": "典型",
    "1081": "典雅",
    "1082": "兼備",
    "1083": "兼具",
    "1084": "兼顧",
    "1085": "再",
    "1086": "再來",
    "1087": "再壓",
    "1088": "再次",
    "1089": "再現",
    "1090": "再用",
    "1091": "再繞",
    "1092": "再調",
    "1093": "再輕",
    "1094": "再過",
    "1095": "冒",
    "1096": "冠",
    "1097": "冠軍團隊",
    "1098": "冠軍粕",
    "1099": "冠軍級",
    "1100": "冬天",
    "1101": "冰",
    "1102": "冰塊",
    "1103": "冰水",
    "1104": "冰淇淋",
    "1105": "冰滴",
    "1106": "冰球",
    "1107": "冰箱",
    "1108": "冷",
    "1109": "冷凍",
    "1110": "冷凝",
    "1111": "冷壓",
    "1112": "冷水",
    "1113": "冷泡",
    "1114": "冷縮",
    "1115": "冷萃",
    "1116": "冷藏",
    "1117": "冷釀",
    "1118": "凡是",
    "1119": "凸顯",
    "1120": "凹槽",
    "1121": "出",
    "1122": "出乎意料",
    "1123": "出乾淨",
    "1124": "出來",
    "1125": "出口",
    "1126": "出品",
    "1127": "出均",
    "1128": "出多種",
    "1129": "出大約",
    "1130": "出太多物質",
    "1131": "出層次",
    "1132": "出屬",
    "1133": "出差",
    "1134": "出手",
    "1135": "出擊",
    "1136": "出時",
    "1137": "出極致",
    "1138": "出水口",
    "1139": "出水量",
    "1140": "出無法",
    "1141": "出現",
    "1142": "出甜感",
    "1143": "出苦澀",
    "1144": "出較",
    "1145": "出過",
    "1146": "出酸質",
    "1147": "出類",
    "1148": "出風味",
    "1149": "出香氣",
    "1150": "出香濃",
    "1151": "刀盤",
    "1152": "分",
    "1153": "分享",
    "1154": "分半",
    "1155": "分半到",
    "1156": "分半鐘",
    "1157": "分子",
    "1158": "分布",
    "1159": "分成",
    "1160": "分批",
    "1161": "分散",
    "1162": "分數",
    "1163": "分明",
    "1164": "分析",
    "1165": "分次",
    "1166": "分段",
    "1167": "分滿時",
    "1168": "分為",
    "1169": "分級",
    "1170": "分裝",
    "1171": "分辨",
    "1172": "分鐘",
    "1173": "分鐘後熱量",
    "1174": "分開",
    "1175": "分離",
    "1176": "切割",
    "1177": "切記",
    "1178": "初入門",
    "1179": "初始",
    "1180": "初學",
    "1181": "初學手",
    "1182": "初學者",
    "1183": "初心",
    "1184": "初期",
    "1185": "初次",
    "1186": "初階",
    "1187": "判別",
    "1188": "判斷",
    "1189": "別",
    "1190": "利用",
    "1191": "到",
    "1192": "到底",
    "1193": "到手",
    "1194": "刺激",
    "1195": "刻度",
    "1196": "刻意",
    "1197": "則",
    "1198": "則反過",
    "1199": "則可選蜜",
    "1200": "則因",
    "1201": "則在",
    "1202": "則把",
    "1203": "則推薦",
    "1204": "則改",
    "1205": "則是",
    "1206": "則會",
    "1207": "則有",
    "1208": "則比",
    "1209": "則減",
    "1210": "則磨",
    "1211": "則能",
    "1212": "則能將",
    "1213": "則認",
    "1214": "則較",
    "1215": "則類",
    "1216": "前",
    "1217": "前提",
    "1218": "前文",
    "1219": "前會",
    "1220": "前段",
    "1221": "前述",
    "1222": "前面",
    "1223": "前體",
    "1224": "剛",
    "1225": "剛好",
    "1226": "剛接觸",
    "1227": "剛磨",
    "1228": "剛開始",
    "1229": "剩",
    "1230": "剩下",
    "1231": "剩餘",
    "1232": "副",
    "1233": "創作",
    "1234": "創新",
    "1235": "創辦",
    "1236": "創造",
    "1237": "劇烈",
    "1238": "劑",
    "1239": "力學",
    "1240": "力氣",
    "1241": "力量",
    "1242": "功效",
    "1243": "功率",
    "1244": "功用",
    "1245": "功能",
    "1246": "加",
    "1247": "加上",
    "1248": "加入",
    "1249": "加壓",
    "1250": "加壓式",
    "1251": "加水",
    "1252": "加熱",
    "1253": "加熱壺",
    "1254": "加熱產生",
    "1255": "加熱至",
    "1256": "加速",
    "1257": "助您",
    "1258": "助燃",
    "1259": "努力",
    "1260": "勁",
    "1261": "動",
    "1262": "動並",
    "1263": "動作",
    "1264": "動態",
    "1265": "動手",
    "1266": "務必",
    "1267": "勻",
    "1268": "勻且",
    "1269": "勻分",
    "1270": "勻度",
    "1271": "勻性",
    "1272": "勻抹平",
    "1273": "勻速",
    "1274": "勾好",
    "1275": "勿",
    "1276": "包",
    "1277": "包上",
    "1278": "包含",
    "1279": "包括",
    "1280": "包泡入",
    "1281": "包熱",
    "1282": "包產品",
    "1283": "包裝",
    "1284": "包裝成",
    "1285": "包裝連",
    "1286": "包裹",
    "1287": "包覆",
    "1288": "化",
    "1289": "化合物",
    "1290": "化學",
    "1291": "化學物質",
    "1292": "化工",
    "1293": "化性",
    "1294": "區",
    "1295": "區分",
    "1296": "區別",
    "1297": "區域",
    "1298": "區間",
    "1299": "十分",
    "1300": "十多",
    "1301": "十大",
    "1302": "十字",
    "1303": "十年",
    "1304": "十足",
    "1305": "千樣",
    "1306": "千篇",
    "1307": "升級",
    "1308": "半年",
    "1309": "半段",
    "1310": "卓越",
    "1311": "協會",
    "1312": "南北",
    "1313": "占",
    "1314": "占卜",
    "1315": "卡",
    "1316": "卡在",
    "1317": "卡布",
    "1318": "卡式",
    "1319": "卡豆",
    "1320": "印象",
    "1321": "危害",
    "1322": "即",
    "1323": "即使",
    "1324": "即便",
    "1325": "即可",
    "1326": "即時",
    "1327": "卻",
    "1328": "厚",
    "1329": "厚實",
    "1330": "厚度",
    "1331": "厚重",
    "1332": "原",
    "1333": "原來",
    "1334": "原則",
    "1335": "原味",
    "1336": "原因",
    "1337": "原始",
    "1338": "原料",
    "1339": "原有",
    "1340": "原理",
    "1341": "厭惡",
    "1342": "去",
    "1343": "去除",
    "1344": "參數",
    "1345": "參數供",
    "1346": "參數容",
    "1347": "參考",
    "1348": "參考值",
    "1349": "參訪",
    "1350": "又",
    "1351": "又名",
    "1352": "及",
    "1353": "及品種",
    "1354": "及材質",
    "1355": "及綿細",
    "1356": "及風味",
    "1357": "友善",
    "1358": "反之",
    "1359": "反壓法",
    "1360": "反應",
    "1361": "取",
    "1362": "取代",
    "1363": "取出",
    "1364": "取勝",
    "1365": "取合適",
    "1366": "取得",
    "1367": "取決",
    "1368": "取消",
    "1369": "取用",
    "1370": "受保護",
    "1371": "受其",
    "1372": "受到",
    "1373": "受場",
    "1374": "受潮",
    "1375": "受熱",
    "1376": "口味",
    "1377": "口徑",
    "1378": "口感",
    "1379": "古怪",
    "1380": "古老",
    "1381": "另",
    "1382": "另一方面",
    "1383": "另外",
    "1384": "只",
    "1385": "只是",
    "1386": "只有",
    "1387": "只能",
    "1388": "只要",
    "1389": "可",
    "1390": "可下壓",
    "1391": "可以",
    "1392": "可任意",
    "1393": "可供",
    "1394": "可依",
    "1395": "可依個",
    "1396": "可依習",
    "1397": "可先",
    "1398": "可先試",
    "1399": "可分",
    "1400": "可嘗",
    "1401": "可嘗試",
    "1402": "可將",
    "1403": "可幫助",
    "1404": "可想而知",
    "1405": "可控",
    "1406": "可控性",
    "1407": "可根據",
    "1408": "可溶",
    "1409": "可溶性",
    "1410": "可獲",
    "1411": "可玩性",
    "1412": "可用",
    "1413": "可移",
    "1414": "可稱",
    "1415": "可精準",
    "1416": "可納",
    "1417": "可能",
    "1418": "可能性",
    "1419": "可行",
    "1420": "可視",
    "1421": "可輕",
    "1422": "可輕柔",
    "1423": "可輕輕",
    "1424": "可透過",
    "1425": "可達",
    "1426": "可選",
    "1427": "可選擇",
    "1428": "可選錐形",
    "1429": "可重",
    "1430": "可驗證",
    "1431": "台北",
    "1432": "台南",
    "1433": "台灣",
    "1434": "吃掉",
    "1435": "各",
    "1436": "各位",
    "1437": "各個",
    "1438": "各具特色",
    "1439": "各式",
    "1440": "各有",
    "1441": "各樣",
    "1442": "各種",
    "1443": "各自",
    "1444": "各階段",
    "1445": "各項",
    "1446": "合法",
    "1447": "合用",
    "1448": "合適",
    "1449": "同",
    "1450": "同一",
    "1451": "同心",
    "1452": "同時",
    "1453": "同時將",
    "1454": "同樣",
    "1455": "同款",
    "1456": "同步",
    "1457": "同等",
    "1458": "同點",
    "1459": "名字",
    "1460": "名稱",
    "1461": "向",
    "1462": "向上",
    "1463": "向下",
    "1464": "向前",
    "1465": "向外",
    "1466": "吞下去",
    "1467": "否則",
    "1468": "吧",
    "1469": "含有",
    "1470": "含量",
    "1471": "吸回",
    "1472": "吸引",
    "1473": "吸引力",
    "1474": "吸收",
    "1475": "吸水",
    "1476": "吸附",
    "1477": "呈",
    "1478": "呈現",
    "1479": "告訴",
    "1480": "呢",
    "1481": "周圍",
    "1482": "周知",
    "1483": "味",
    "1484": "味蕾",
    "1485": "味覺",
    "1486": "味過",
    "1487": "味道",
    "1488": "命名",
    "1489": "和",
    "1490": "和諧",
    "1491": "咖",
    "1492": "咖啡",
    "1493": "咖啡因",
    "1494": "咖啡店",
    "1495": "咖啡杯",
    "1496": "咖啡粉",
    "1497": "咖啡色",
    "1498": "咖啡豆",
    "1499": "咬",
    "1500": "品",
    "1501": "品名",
    "1502": "品味",
    "1503": "品嘗到",
    "1504": "品嚐",
    "1505": "品牌",
    "1506": "品種",
    "1507": "品質",
    "1508": "品鑑",
    "1509": "品項",
    "1510": "品飲",
    "1511": "哈佛",
    "1512": "哈本",
    "1513": "哎",
    "1514": "哥倫比亞",
    "1515": "哦",
    "1516": "哪",
    "1517": "哪一種",
    "1518": "哪些",
    "1519": "哪些因素",
    "1520": "哪個",
    "1521": "哪種",
    "1522": "哪裡",
    "1523": "哲大師",
    "1524": "哲學",
    "1525": "售常見",
    "1526": "唯一",
    "1527": "商",
    "1528": "商也會",
    "1529": "商品",
    "1530": "商業級",
    "1531": "商用",
    "1532": "啊",
    "1533": "問處",
    "1534": "問題",
    "1535": "啜",
    "1536": "啜吸到",
    "1537": "啜吸時",
    "1538": "啟動",
    "1539": "啟發",
    "1540": "啡",
    "1541": "啤酒",
    "1542": "啦",
    "1543": "善用",
    "1544": "喉嚨",
    "1545": "喔",
    "1546": "喘",
    "1547": "喘口氣",
    "1548": "喚醒",
    "1549": "喜",
    "1550": "喜好",
    "1551": "喜愛",
    "1552": "喜愛強烈",
    "1553": "喜愛的",
    "1554": "喜歡",
    "1555": "喝",
    "1556": "喝一杯",
    "1557": "喝到",
    "1558": "喝咖啡",
    "1559": "喝法",
    "1560": "喝起",
    "1561": "喝進",
    "1562": "喝過",
    "1563": "喝酸",
    "1564": "喪失",
    "1565": "單",
    "1566": "單一",
    "1567": "單一產區",
    "1568": "單一變",
    "1569": "單位",
    "1570": "單向",
    "1571": "單品",
    "1572": "單寧酸",
    "1573": "單杯",
    "1574": "單純",
    "1575": "單薄",
    "1576": "單點",
    "1577": "喻戶曉",
    "1578": "嗎",
    "1579": "嘗",
    "1580": "嘗到",
    "1581": "嘗試",
    "1582": "嘴",
    "1583": "嘴處",
    "1584": "器具",
    "1585": "器材",
    "1586": "器皿",
    "1587": "噴霧",
    "1588": "嚐",
    "1589": "嚐到",
    "1590": "嚥",
    "1591": "嚴",
    "1592": "嚴格",
    "1593": "嚴格來",
    "1594": "嚴謹",
    "1595": "囉",
    "1596": "四",
    "1597": "四六",
    "1598": "四味",
    "1599": "四大",
    "1600": "四次",
    "1601": "四溢",
    "1602": "回",
    "1603": "回來",
    "1604": "回到",
    "1605": "回報",
    "1606": "回流",
    "1607": "回濾壺",
    "1608": "因",
    "1609": "因人",
    "1610": "因前",
    "1611": "因應",
    "1612": "因接觸",
    "1613": "因斷",
    "1614": "因時",
    "1615": "因極細",
    "1616": "因此",
    "1617": "因比較",
    "1618": "因水",
    "1619": "因為",
    "1620": "因為觸",
    "1621": "因素",
    "1622": "因而",
    "1623": "因輕",
    "1624": "因過度",
    "1625": "困擾",
    "1626": "困難",
    "1627": "固定",
    "1628": "固定值",
    "1629": "固定量",
    "1630": "圈",
    "1631": "國外",
    "1632": "國家",
    "1633": "國際",
    "1634": "國際賽",
    "1635": "圓",
    "1636": "圓周",
    "1637": "圓心",
    "1638": "圓潤",
    "1639": "圓繞",
    "1640": "圖",
    "1641": "圖為",
    "1642": "土耳其",
    "1643": "在",
    "1644": "在家",
    "1645": "在後續",
    "1646": "在悶",
    "1647": "在意",
    "1648": "在手",
    "1649": "地",
    "1650": "地分",
    "1651": "地區",
    "1652": "地向",
    "1653": "地圖",
    "1654": "地均",
    "1655": "地將",
    "1656": "地展",
    "1657": "地帶",
    "1658": "地常見",
    "1659": "地方",
    "1660": "地計算",
    "1661": "地調",
    "1662": "地變換",
    "1663": "地面",
    "1664": "地點",
    "1665": "均",
    "1666": "均勻",
    "1667": "均衡",
    "1668": "垂直",
    "1669": "型",
    "1670": "城市",
    "1671": "培豆",
    "1672": "基底",
    "1673": "基座",
    "1674": "基本",
    "1675": "基本上",
    "1676": "基本功",
    "1677": "基準",
    "1678": "基礎",
    "1679": "堅固",
    "1680": "堅持",
    "1681": "堅果",
    "1682": "堅硬",
    "1683": "堆疊",
    "1684": "堆疊成",
    "1685": "堆積",
    "1686": "堪稱",
    "1687": "場合",
    "1688": "場景",
    "1689": "塊",
    "1690": "塌陷",
    "1691": "塑料",
    "1692": "塑膠",
    "1693": "塞",
    "1694": "塞住",
    "1695": "塞風壺",
    "1696": "填",
    "1697": "填壓",
    "1698": "填壓器",
    "1699": "增加",
    "1700": "增添",
    "1701": "壁",
    "1702": "壓",
    "1703": "壓下",
    "1704": "壓且",
    "1705": "壓入",
    "1706": "壓力",
    "1707": "壓器",
    "1708": "壓壺",
    "1709": "壓實",
    "1710": "壓實成",
    "1711": "壓得",
    "1712": "壓桿",
    "1713": "壓濾",
    "1714": "壓濾壺",
    "1715": "壓濾網",
    "1716": "壓濾過",
    "1717": "壓熱",
    "1718": "壓產生",
    "1719": "壓筒",
    "1720": "壓網",
    "1721": "壓縮泵",
    "1722": "壞",
    "1723": "壺",
    "1724": "壺上",
    "1725": "壺中",
    "1726": "壺來",
    "1727": "壺內",
    "1728": "壺具",
    "1729": "壺到",
    "1730": "壺又稱",
    "1731": "壺口",
    "1732": "壺嘴",
    "1733": "壺型",
    "1734": "壺就",
    "1735": "壺或",
    "1736": "壺或馬克杯",
    "1737": "壺推薦",
    "1738": "壺是",
    "1739": "壺有",
    "1740": "壺杯",
    "1741": "壺沸騰",
    "1742": "壺溫度",
    "1743": "壺特點",
    "1744": "壺發",
    "1745": "壺的",
    "1746": "壺的壺",
    "1747": "壺組",
    "1748": "壺與",
    "1749": "壺裝水",
    "1750": "壺身",
    "1751": "壺透",
    "1752": "壺達",
    "1753": "夏",
    "1754": "夏天",
    "1755": "夏威夷",
    "1756": "夏季",
    "1757": "夏日",
    "1758": "外",
    "1759": "外出",
    "1760": "外圈",
    "1761": "外圍",
    "1762": "外型",
    "1763": "外層",
    "1764": "外往",
    "1765": "外畫",
    "1766": "外繞",
    "1767": "外膨脹",
    "1768": "外袋",
    "1769": "外觀",
    "1770": "外面",
    "1771": "多",
    "1772": "多一點",
    "1773": "多元",
    "1774": "多功能",
    "1775": "多功能性",
    "1776": "多半",
    "1777": "多寡",
    "1778": "多小氣",
    "1779": "多少",
    "1780": "多少度",
    "1781": "多層次",
    "1782": "多年",
    "1783": "多手",
    "1784": "多數",
    "1785": "多會",
    "1786": "多杯數",
    "1787": "多樣",
    "1788": "多樣化",
    "1789": "多次",
    "1790": "多款",
    "1791": "多段",
    "1792": "多注",
    "1793": "多物質",
    "1794": "多種",
    "1795": "多花",
    "1796": "多花費",
    "1797": "多變",
    "1798": "夢",
    "1799": "大",
    "1800": "大且",
    "1801": "大公",
    "1802": "大分子",
    "1803": "大利",
    "1804": "大力",
    "1805": "大地",
    "1806": "大多",
    "1807": "大大",
    "1808": "大大降低",
    "1809": "大好",
    "1810": "大家",
    "1811": "大小",
    "1812": "大師",
    "1813": "大幅",
    "1814": "大幅度",
    "1815": "大影響",
    "1816": "大手",
    "1817": "大概",
    "1818": "大步",
    "1819": "大氣",
    "1820": "大眾",
    "1821": "大約",
    "1822": "大綱",
    "1823": "大致",
    "1824": "大要點",
    "1825": "大變",
    "1826": "大賽",
    "1827": "大逐",
    "1828": "大部分",
    "1829": "大釋",
    "1830": "大重點",
    "1831": "大量",
    "1832": "大類",
    "1833": "天到",
    "1834": "天氣",
    "1835": "天然",
    "1836": "太",
    "1837": "太久",
    "1838": "太多",
    "1839": "太多苦",
    "1840": "太大",
    "1841": "太強",
    "1842": "太快",
    "1843": "太淡",
    "1844": "太濃",
    "1845": "太猛",
    "1846": "太粗",
    "1847": "太細",
    "1848": "太苦",
    "1849": "太薄",
    "1850": "太酸",
    "1851": "太重",
    "1852": "太長",
    "1853": "太高",
    "1854": "失去",
    "1855": "失敗",
    "1856": "失望",
    "1857": "失衡",
    "1858": "奇諾",
    "1859": "套",
    "1860": "套件",
    "1861": "奶",
    "1862": "奶油",
    "1863": "奶泡",
    "1864": "奶茶",
    "1865": "好",
    "1866": "好品質",
    "1867": "好喝",
    "1868": "好奇心",
    "1869": "好好",
    "1870": "好手",
    "1871": "好水溫",
    "1872": "好消息",
    "1873": "好淋濕",
    "1874": "好濾杯",
    "1875": "好磨",
    "1876": "好處",
    "1877": "好評",
    "1878": "如",
    "1879": "如下",
    "1880": "如今",
    "1881": "如何",
    "1882": "如冷萃",
    "1883": "如拿鐵",
    "1884": "如果",
    "1885": "如此",
    "1886": "如泥濘",
    "1887": "妙",
    "1888": "妨礙",
    "1889": "始",
    "1890": "始終",
    "1891": "始練習",
    "1892": "孔徑",
    "1893": "孔洞",
    "1894": "孔隙",
    "1895": "字",
    "1896": "字形",
    "1897": "字面上",
    "1898": "存在",
    "1899": "學",
    "1900": "學問",
    "1901": "學會",
    "1902": "學習",
    "1903": "學路線",
    "1904": "它",
    "1905": "它並",
    "1906": "它們",
    "1907": "安全",
    "1908": "安裝",
    "1909": "完",
    "1910": "完全",
    "1911": "完全相同",
    "1912": "完好",
    "1913": "完後的",
    "1914": "完成",
    "1915": "完整",
    "1916": "完畢",
    "1917": "完美",
    "1918": "定",
    "1919": "定值",
    "1920": "定性",
    "1921": "定手",
    "1922": "定期",
    "1923": "定點",
    "1924": "客",
    "1925": "客人",
    "1926": "客戶",
    "1927": "室",
    "1928": "家",
    "1929": "家中",
    "1930": "家人",
    "1931": "家庭",
    "1932": "家用",
    "1933": "容器",
    "1934": "容易",
    "1935": "容量",
    "1936": "容錯",
    "1937": "密",
    "1938": "密切",
    "1939": "密合",
    "1940": "密實",
    "1941": "密封",
    "1942": "密度",
    "1943": "富含",
    "1944": "富士",
    "1945": "實",
    "1946": "實作",
    "1947": "實惠",
    "1948": "實惠且",
    "1949": "實有",
    "1950": "實現",
    "1951": "實甜感",
    "1952": "實用",
    "1953": "實習",
    "1954": "實踐",
    "1955": "實際",
    "1956": "實際上",
    "1957": "實風味",
    "1958": "實驗",
    "1959": "實驗室",
    "1960": "實體",
    "1961": "寫",
    "1962": "寬口",
    "1963": "寬口長",
    "1964": "寬度",
    "1965": "寶庫",
    "1966": "寶藏",
    "1967": "將",
    "1968": "將下壺",
    "1969": "將中細",
    "1970": "將介紹",
    "1971": "將兩者",
    "1972": "將其",
    "1973": "將呈現",
    "1974": "將家裡",
    "1975": "將實驗室",
    "1976": "將帶",
    "1977": "將影響",
    "1978": "將成",
    "1979": "將所",
    "1980": "將手",
    "1981": "將指導",
    "1982": "將探",
    "1983": "將教",
    "1984": "將會",
    "1985": "將極",
    "1986": "將極細",
    "1987": "將此",
    "1988": "將水",
    "1989": "將水壺",
    "1990": "將決定",
    "1991": "將海鹽",
    "1992": "將滿水",
    "1993": "將濃縮",
    "1994": "將濾",
    "1995": "將濾包",
    "1996": "將濾掛",
    "1997": "將濾杯",
    "1998": "將濾紙",
    "1999": "將為",
    "2000": "將煮",
    "2001": "將熱水",
    "2002": "將熱水吸",
    "2003": "將磨",
    "2004": "將粉",
    "2005": "將粗",
    "2006": "將細到",
    "2007": "將總",
    "2008": "將總注",
    "2009": "將能",
    "2010": "將裝",
    "2011": "將裡面",
    "2012": "將進",
    "2013": "將過",
    "2014": "將開水",
    "2015": "將顆",
    "2016": "專利",
    "2017": "專利濾",
    "2018": "專屬",
    "2019": "專業",
    "2020": "專業手",
    "2021": "專為",
    "2022": "專用",
    "2023": "專門",
    "2024": "尋找",
    "2025": "對",
    "2026": "對味",
    "2027": "對待",
    "2028": "對水溫",
    "2029": "對照",
    "2030": "對話",
    "2031": "對象",
    "2032": "對風味",
    "2033": "導熱",
    "2034": "導熱性",
    "2035": "導致",
    "2036": "小",
    "2037": "小口",
    "2038": "小型",
    "2039": "小巧",
    "2040": "小心",
    "2041": "小時",
    "2042": "小杯",
    "2043": "小洞",
    "2044": "小火",
    "2045": "小範圍",
    "2046": "小結",
    "2047": "小蘇",
    "2048": "小飛馬",
    "2049": "小飛鷹",
    "2050": "少",
    "2051": "少後兩次",
    "2052": "少數",
    "2053": "少注",
    "2054": "少量",
    "2055": "尖酸",
    "2056": "尖銳",
    "2057": "尚未",
    "2058": "尤其",
    "2059": "就",
    "2060": "就是",
    "2061": "就會",
    "2062": "就要",
    "2063": "尺寸",
    "2064": "尾巴",
    "2065": "尾韻",
    "2066": "局部",
    "2067": "居住",
    "2068": "居多",
    "2069": "居家",
    "2070": "居然",
    "2071": "屈臣氏",
    "2072": "展出",
    "2073": "展現",
    "2074": "展示",
    "2075": "展開",
    "2076": "層",
    "2077": "層意義",
    "2078": "層次",
    "2079": "層次拉開",
    "2080": "屬",
    "2081": "屬於滴",
    "2082": "屬的",
    "2083": "工作",
    "2084": "工作室",
    "2085": "工具",
    "2086": "工學",
    "2087": "工序",
    "2088": "工欲善其事",
    "2089": "左右",
    "2090": "巧克力",
    "2091": "巧妙",
    "2092": "巨大",
    "2093": "差",
    "2094": "差不多",
    "2095": "差別",
    "2096": "差太多",
    "2097": "差異",
    "2098": "已",
    "2099": "已成",
    "2100": "已有",
    "2101": "已經",
    "2102": "已經壞",
    "2103": "已經成",
    "2104": "巷弄",
    "2105": "市售",
    "2106": "市場",
    "2107": "市面",
    "2108": "市面上",
    "2109": "布",
    "2110": "布濾袋",
    "2111": "布質",
    "2112": "希望",
    "2113": "師",
    "2114": "師傅",
    "2115": "師到",
    "2116": "師大賽",
    "2117": "師手",
    "2118": "師認證",
    "2119": "帶",
    "2120": "帶來",
    "2121": "帶入",
    "2122": "帶出",
    "2123": "帶有",
    "2124": "帶渣",
    "2125": "帶給",
    "2126": "帶著",
    "2127": "帶酸",
    "2128": "常",
    "2129": "常常",
    "2130": "常溫",
    "2131": "常用",
    "2132": "常用工具",
    "2133": "常見",
    "2134": "常識",
    "2135": "幫",
    "2136": "幫助",
    "2137": "幫助後續",
    "2138": "幫助熱",
    "2139": "幫助練",
    "2140": "幫手",
    "2141": "干擾",
    "2142": "平",
    "2143": "平價",
    "2144": "平刀",
    "2145": "平均",
    "2146": "平坦",
    "2147": "平推",
    "2148": "平整",
    "2149": "平整度",
    "2150": "平時",
    "2151": "平權",
    "2152": "平淡",
    "2153": "平穩",
    "2154": "平衡",
    "2155": "平貼",
    "2156": "平順",
    "2157": "年",
    "2158": "年代",
    "2159": "年前",
    "2160": "年間",
    "2161": "幾",
    "2162": "幾下",
    "2163": "幾乎",
    "2164": "幾個",
    "2165": "幾分鐘",
    "2166": "幾塊",
    "2167": "幾度",
    "2168": "幾次",
    "2169": "幾秒鐘",
    "2170": "幾種",
    "2171": "幾筆",
    "2172": "床",
    "2173": "床會",
    "2174": "底",
    "2175": "底部",
    "2176": "店",
    "2177": "店家",
    "2178": "店裡",
    "2179": "度",
    "2180": "度之間",
    "2181": "度則",
    "2182": "度外",
    "2183": "度太細",
    "2184": "度應",
    "2185": "度會",
    "2186": "度極細",
    "2187": "度越",
    "2188": "度過",
    "2189": "度適",
    "2190": "廓",
    "2191": "廚師",
    "2192": "廚房",
    "2193": "廠商",
    "2194": "廣大",
    "2195": "廣泛",
    "2196": "廳",
    "2197": "延伸",
    "2198": "延長",
    "2199": "建立",
    "2200": "建議",
    "2201": "建議將",
    "2202": "建議量",
    "2203": "弄會",
    "2204": "式",
    "2205": "式壺",
    "2206": "引人注目",
    "2207": "引入",
    "2208": "引出",
    "2209": "引導",
    "2210": "引起",
    "2211": "引領",
    "2212": "強",
    "2213": "強勁",
    "2214": "強大",
    "2215": "強度",
    "2216": "強烈",
    "2217": "強調",
    "2218": "強迫",
    "2219": "彈性",
    "2220": "彙",
    "2221": "形刀盤",
    "2222": "形容",
    "2223": "形式",
    "2224": "形成",
    "2225": "形濾杯",
    "2226": "形狀",
    "2227": "形狀會",
    "2228": "影片",
    "2229": "影響",
    "2230": "影響力",
    "2231": "影響者",
    "2232": "彷",
    "2233": "彷如",
    "2234": "彿",
    "2235": "往",
    "2236": "往二個",
    "2237": "往外",
    "2238": "往往",
    "2239": "往後折",
    "2240": "往後段",
    "2241": "待",
    "2242": "待多練",
    "2243": "待濾",
    "2244": "待濾杯",
    "2245": "很",
    "2246": "很受",
    "2247": "很多",
    "2248": "很大",
    "2249": "很少",
    "2250": "很強",
    "2251": "很費力",
    "2252": "後",
    "2253": "徑則",
    "2254": "得",
    "2255": "得以",
    "2256": "得到",
    "2257": "得太快",
    "2258": "得太細",
    "2259": "得宜",
    "2260": "得心",
    "2261": "從",
    "2262": "從何",
    "2263": "從冠",
    "2264": "從冰滴",
    "2265": "從壺",
    "2266": "從手",
    "2267": "從數",
    "2268": "從水",
    "2269": "從水溫",
    "2270": "從理論",
    "2271": "從義式",
    "2272": "從觀",
    "2273": "從錐形",
    "2274": "復",
    "2275": "循序",
    "2276": "循環",
    "2277": "微妙",
    "2278": "微小",
    "2279": "微氣",
    "2280": "微粒",
    "2281": "微調",
    "2282": "微量",
    "2283": "德國",
    "2284": "徹底",
    "2285": "心",
    "2286": "心中",
    "2287": "心力",
    "2288": "心得",
    "2289": "心情",
    "2290": "心無法",
    "2291": "必備",
    "2292": "必先利其器",
    "2293": "必學",
    "2294": "必知",
    "2295": "必要",
    "2296": "必讀",
    "2297": "必需品",
    "2298": "必須",
    "2299": "忙碌",
    "2300": "快",
    "2301": "快樂",
    "2302": "快速",
    "2303": "忽大忽小",
    "2304": "忽快忽慢",
    "2305": "忽視",
    "2306": "怎樣",
    "2307": "怎麼",
    "2308": "怎麼樣",
    "2309": "思義是",
    "2310": "性",
    "2311": "性且",
    "2312": "性能",
    "2313": "恆溫壺",
    "2314": "恰當",
    "2315": "悠久",
    "2316": "您",
    "2317": "悶蒸",
    "2318": "悶蒸屬",
    "2319": "悶蒸後一注",
    "2320": "悶蒸後將",
    "2321": "悶蒸時",
    "2322": "悶蒸階段",
    "2323": "情境",
    "2324": "情況",
    "2325": "情調",
    "2326": "惟",
    "2327": "惡",
    "2328": "惰",
    "2329": "想",
    "2330": "想像",
    "2331": "想為",
    "2332": "想要",
    "2333": "想體驗",
    "2334": "愈",
    "2335": "愈長",
    "2336": "愉悅",
    "2337": "意即",
    "2338": "意味著",
    "2339": "意思",
    "2340": "意義",
    "2341": "愛",
    "2342": "愛好者",
    "2343": "愛樂壓",
    "2344": "愛甜",
    "2345": "愛酸選",
    "2346": "感",
    "2347": "感來",
    "2348": "感到",
    "2349": "感動",
    "2350": "感受",
    "2351": "感官",
    "2352": "感性",
    "2353": "感覺",
    "2354": "感豐富",
    "2355": "態度",
    "2356": "慎選",
    "2357": "慢",
    "2358": "慢慢",
    "2359": "慢跑",
    "2360": "慢速",
    "2361": "慣",
    "2362": "慮",
    "2363": "懂",
    "2364": "懂常見",
    "2365": "懂得",
    "2366": "應",
    "2367": "應備",
    "2368": "應將",
    "2369": "應少",
    "2370": "應手",
    "2371": "應為",
    "2372": "應用",
    "2373": "應該",
    "2374": "應選用",
    "2375": "應靜置",
    "2376": "懶",
    "2377": "懶人",
    "2378": "懶人包",
    "2379": "懸浮",
    "2380": "成",
    "2381": "成分",
    "2382": "成功",
    "2383": "成功率",
    "2384": "成品",
    "2385": "成室",
    "2386": "成就",
    "2387": "成敗",
    "2388": "成是",
    "2389": "成本",
    "2390": "成本低",
    "2391": "成果",
    "2392": "成為",
    "2393": "成為將",
    "2394": "成長",
    "2395": "我",
    "2396": "我們",
    "2397": "我們將",
    "2398": "我們還",
    "2399": "我家",
    "2400": "我手",
    "2401": "我練",
    "2402": "我聞到",
    "2403": "或",
    "2404": "或室",
    "2405": "或布",
    "2406": "或常溫",
    "2407": "或悶",
    "2408": "或拉動",
    "2409": "或是",
    "2410": "或毀",
    "2411": "或氣",
    "2412": "或法",
    "2413": "或用",
    "2414": "或羅布",
    "2415": "或者",
    "2416": "或許",
    "2417": "或調",
    "2418": "或露",
    "2419": "或點",
    "2420": "截至",
    "2421": "戲劇",
    "2422": "戴眼鏡",
    "2423": "戶外",
    "2424": "所",
    "2425": "所以",
    "2426": "所學",
    "2427": "所有",
    "2428": "所欲",
    "2429": "所產生",
    "2430": "所用",
    "2431": "所謂",
    "2432": "所選",
    "2433": "手",
    "2434": "手上",
    "2435": "手作",
    "2436": "手動",
    "2437": "手將",
    "2438": "手式",
    "2439": "手感",
    "2440": "手把手",
    "2441": "手掌",
    "2442": "手搖",
    "2443": "手搖磨",
    "2444": "手搖磨豆",
    "2445": "手柄",
    "2446": "手法",
    "2447": "手腕",
    "2448": "手衝",
    "2449": "手衝式",
    "2450": "手邊",
    "2451": "才",
    "2452": "才能",
    "2453": "扎",
    "2454": "扎實",
    "2455": "打",
    "2456": "打散",
    "2457": "打粉",
    "2458": "打造",
    "2459": "打造出",
    "2460": "打開",
    "2461": "扣上",
    "2462": "扮演",
    "2463": "找",
    "2464": "找出",
    "2465": "找到",
    "2466": "承裝",
    "2467": "承襲義",
    "2468": "技",
    "2469": "技巧",
    "2470": "技法",
    "2471": "技能",
    "2472": "技術",
    "2473": "技術門檻",
    "2474": "把",
    "2475": "把壺",
    "2476": "把手",
    "2477": "抓",
    "2478": "抓取",
    "2479": "投入",
    "2480": "投資",
    "2481": "投資好",
    "2482": "抖",
    "2483": "抗",
    "2484": "抗氧化",
    "2485": "抗病",
    "2486": "折壓",
    "2487": "折損",
    "2488": "折濾紙",
    "2489": "抹",
    "2490": "拆",
    "2491": "拆卸",
    "2492": "拆成",
    "2493": "拆解",
    "2494": "拉",
    "2495": "拉出",
    "2496": "拉動",
    "2497": "拉直",
    "2498": "拉花",
    "2499": "拉長",
    "2500": "拉開",
    "2501": "拉高",
    "2502": "拋棄式",
    "2503": "拌",
    "2504": "拍",
    "2505": "拍平",
    "2506": "拍打",
    "2507": "拍濾杯",
    "2508": "拿",
    "2509": "拿出",
    "2510": "拿到",
    "2511": "拿捏",
    "2512": "持續",
    "2513": "指",
    "2514": "指一種",
    "2515": "指中斷",
    "2516": "指南",
    "2517": "指定",
    "2518": "按",
    "2519": "按下",
    "2520": "按悶",
    "2521": "按照",
    "2522": "按鈕",
    "2523": "挑",
    "2524": "挑戰",
    "2525": "挑戰點",
    "2526": "挑起",
    "2527": "挑選",
    "2528": "挑選單",
    "2529": "挑選時",
    "2530": "挑選要",
    "2531": "挖",
    "2532": "挖出",
    "2533": "挖掘出",
    "2534": "挖洞",
    "2535": "挫折感",
    "2536": "捕",
    "2537": "捷徑",
    "2538": "掀起",
    "2539": "掉",
    "2540": "掌控",
    "2541": "掌握",
    "2542": "排出",
    "2543": "排氣",
    "2544": "排氣量",
    "2545": "排氣閥",
    "2546": "排除",
    "2547": "掛在",
    "2548": "掛耳",
    "2549": "採取",
    "2550": "採用",
    "2551": "採用免",
    "2552": "探索",
    "2553": "接下",
    "2554": "接住",
    "2555": "接入",
    "2556": "接受",
    "2557": "接合",
    "2558": "接單",
    "2559": "接著",
    "2560": "接著將",
    "2561": "接著緩",
    "2562": "接觸",
    "2563": "接近",
    "2564": "控",
    "2565": "控制",
    "2566": "控制性",
    "2567": "控溫",
    "2568": "推",
    "2569": "推入",
    "2570": "推出",
    "2571": "推力",
    "2572": "推動",
    "2573": "推廣",
    "2574": "推薦",
    "2575": "推薦給",
    "2576": "推送",
    "2577": "推進",
    "2578": "推過",
    "2579": "描述",
    "2580": "提供",
    "2581": "提倡",
    "2582": "提出",
    "2583": "提到",
    "2584": "提升",
    "2585": "提取",
    "2586": "提壺",
    "2587": "提振",
    "2588": "提高",
    "2589": "插",
    "2590": "插電版外",
    "2591": "握把",
    "2592": "揭示",
    "2593": "搖勻",
    "2594": "搖式",
    "2595": "搖晃",
    "2596": "搖晃均",
    "2597": "搖晃壺",
    "2598": "搖晃濾杯",
    "2599": "搖晃至",
    "2600": "搜尋手",
    "2601": "搞",
    "2602": "搞不好",
    "2603": "搞懂",
    "2604": "搭",
    "2605": "搭載",
    "2606": "搭配",
    "2607": "摩卡",
    "2608": "摺",
    "2609": "撇",
    "2610": "撐",
    "2611": "撐托",
    "2612": "撐開",
    "2613": "撕開",
    "2614": "撥豆",
    "2615": "擁有",
    "2616": "擅長",
    "2617": "擇",
    "2618": "擊濾杯",
    "2619": "操作",
    "2620": "操作方法",
    "2621": "操過頭",
    "2622": "擔心",
    "2623": "擠壓",
    "2624": "擴散",
    "2625": "擺",
    "2626": "擺脫",
    "2627": "擾動",
    "2628": "擾動會",
    "2629": "擾流",
    "2630": "攜",
    "2631": "攜帶",
    "2632": "攜式",
    "2633": "攝氏",
    "2634": "攪",
    "2635": "攪動",
    "2636": "攪動粉",
    "2637": "攪拌",
    "2638": "攪拌則",
    "2639": "支援",
    "2640": "支撐",
    "2641": "收",
    "2642": "收尾",
    "2643": "收納",
    "2644": "攸關",
    "2645": "改以",
    "2646": "改善",
    "2647": "改成",
    "2648": "改為",
    "2649": "改用",
    "2650": "改良",
    "2651": "改變",
    "2652": "改進",
    "2653": "攻略",
    "2654": "放",
    "2655": "放上",
    "2656": "放下",
    "2657": "放入",
    "2658": "放出",
    "2659": "放在",
    "2660": "放大",
    "2661": "放慢",
    "2662": "放棄",
    "2663": "放濾紙",
    "2664": "放置",
    "2665": "放進",
    "2666": "故",
    "2667": "故事性",
    "2668": "故意",
    "2669": "效應",
    "2670": "效果",
    "2671": "效率",
    "2672": "效率高",
    "2673": "效用",
    "2674": "效能",
    "2675": "敏感",
    "2676": "敏感度",
    "2677": "救星",
    "2678": "敘述",
    "2679": "教",
    "2680": "教學",
    "2681": "教學及",
    "2682": "教學步",
    "2683": "教父",
    "2684": "教育",
    "2685": "教育者",
    "2686": "散",
    "2687": "散失到",
    "2688": "散熱",
    "2689": "散發",
    "2690": "整",
    "2691": "整個",
    "2692": "整出",
    "2693": "整平",
    "2694": "整性",
    "2695": "整水溫",
    "2696": "整版",
    "2697": "整理",
    "2698": "整粉",
    "2699": "整組",
    "2700": "整組僅",
    "2701": "整體",
    "2702": "數",
    "2703": "數也會",
    "2704": "數人",
    "2705": "數位",
    "2706": "數來",
    "2707": "數值",
    "2708": "數年",
    "2709": "數據",
    "2710": "數據驗證",
    "2711": "文化",
    "2712": "文化展",
    "2713": "文末",
    "2714": "文章",
    "2715": "文解",
    "2716": "文青濾杯",
    "2717": "料斗",
    "2718": "斯塔",
    "2719": "新",
    "2720": "新手",
    "2721": "新水時",
    "2722": "新鮮",
    "2723": "新鮮現",
    "2724": "斷",
    "2725": "斷來",
    "2726": "斷水",
    "2727": "斷水來",
    "2728": "方便",
    "2729": "方向",
    "2730": "方式",
    "2731": "方案",
    "2732": "方法",
    "2733": "方面",
    "2734": "於",
    "2735": "於將",
    "2736": "施加",
    "2737": "旅程",
    "2738": "旅行",
    "2739": "旅行者",
    "2740": "旅途",
    "2741": "旅遊",
    "2742": "旋轉",
    "2743": "旋轉劃",
    "2744": "族群",
    "2745": "既",
    "2746": "日",
    "2747": "日常",
    "2748": "日常生活",
    "2749": "日期",
    "2750": "日本",
    "2751": "早",
    "2752": "早已",
    "2753": "早晨",
    "2754": "早會",
    "2755": "昂貴",
    "2756": "明",
    "2757": "明亮",
    "2758": "明手",
    "2759": "明白",
    "2760": "明確",
    "2761": "明者",
    "2762": "明華興業",
    "2763": "明解",
    "2764": "明顯",
    "2765": "易",
    "2766": "易度",
    "2767": "易清洗",
    "2768": "易用",
    "2769": "易用性",
    "2770": "是",
    "2771": "是否",
    "2772": "是將",
    "2773": "是屬",
    "2774": "是絕",
    "2775": "時",
    "2776": "時下",
    "2777": "時候",
    "2778": "時光",
    "2779": "時將",
    "2780": "時常",
    "2781": "時收",
    "2782": "時會",
    "2783": "時機",
    "2784": "時濾杯",
    "2785": "時無法",
    "2786": "時產生",
    "2787": "時盡",
    "2788": "時要",
    "2789": "時較",
    "2790": "時釋",
    "2791": "時針",
    "2792": "時長",
    "2793": "時間",
    "2794": "晃動",
    "2795": "普及",
    "2796": "普通",
    "2797": "智",
    "2798": "暫時",
    "2799": "曬",
    "2800": "曲線",
    "2801": "更",
    "2802": "更乾淨",
    "2803": "更具",
    "2804": "更加",
    "2805": "更厚實",
    "2806": "更合適",
    "2807": "更多",
    "2808": "更多層",
    "2809": "更好",
    "2810": "更換",
    "2811": "更新",
    "2812": "更是",
    "2813": "更木質",
    "2814": "更深",
    "2815": "更溫",
    "2816": "更細",
    "2817": "更絲",
    "2818": "更能",
    "2819": "更苦",
    "2820": "更長",
    "2821": "更飽滿",
    "2822": "更香濃",
    "2823": "更高劑",
    "2824": "曾",
    "2825": "曾經",
    "2826": "替代",
    "2827": "最",
    "2828": "最乾淨",
    "2829": "最低",
    "2830": "最佳",
    "2831": "最偉大",
    "2832": "最先",
    "2833": "最具",
    "2834": "最受",
    "2835": "最合適",
    "2836": "最喜歡",
    "2837": "最均",
    "2838": "最大",
    "2839": "最好",
    "2840": "最小",
    "2841": "最差",
    "2842": "最常",
    "2843": "最常見",
    "2844": "最廣",
    "2845": "最強",
    "2846": "最後一哩",
    "2847": "最後以",
    "2848": "最後倒",
    "2849": "最後剩",
    "2850": "最後將",
    "2851": "最後才",
    "2852": "最後打開",
    "2853": "最後推薦",
    "2854": "最後是",
    "2855": "最後段",
    "2856": "最後為",
    "2857": "最後用",
    "2858": "最後階段",
    "2859": "最擔",
    "2860": "最新",
    "2861": "最早",
    "2862": "最為",
    "2863": "最熱門",
    "2864": "最細",
    "2865": "最終",
    "2866": "最能",
    "2867": "最舒服",
    "2868": "最近",
    "2869": "最適",
    "2870": "最重",
    "2871": "最風行",
    "2872": "最飽滿",
    "2873": "最高",
    "2874": "會",
    "2875": "會主動詢",
    "2876": "會以",
    "2877": "會出",
    "2878": "會分",
    "2879": "會因",
    "2880": "會將",
    "2881": "會導致",
    "2882": "會帶",
    "2883": "會建議",
    "2884": "會斷",
    "2885": "會有",
    "2886": "會極度",
    "2887": "會沉",
    "2888": "會濾",
    "2889": "會為",
    "2890": "會產生",
    "2891": "會用",
    "2892": "會經",
    "2893": "月",
    "2894": "有",
    "2895": "有三種",
    "2896": "有些",
    "2897": "有人",
    "2898": "有什麼",
    "2899": "有何",
    "2900": "有個性",
    "2901": "有側",
    "2902": "有利",
    "2903": "有助",
    "2904": "有多種",
    "2905": "有所",
    "2906": "有所不同",
    "2907": "有效",
    "2908": "有效率",
    "2909": "有澀",
    "2910": "有益",
    "2911": "有破損",
    "2912": "有種",
    "2913": "有興趣",
    "2914": "有著",
    "2915": "有趣",
    "2916": "有酸味",
    "2917": "有關",
    "2918": "有限",
    "2919": "有點",
    "2920": "朋友",
    "2921": "服貼",
    "2922": "期",
    "2923": "期以",
    "2924": "期待",
    "2925": "期望",
    "2926": "期間",
    "2927": "期限",
    "2928": "木質",
    "2929": "未",
    "2930": "未來",
    "2931": "未必",
    "2932": "末",
    "2933": "本世紀",
    "2934": "本來",
    "2935": "本文",
    "2936": "本質",
    "2937": "本身",
    "2938": "杏仁",
    "2939": "材質",
    "2940": "杯",
    "2941": "杯中",
    "2942": "杯口",
    "2943": "杯子",
    "2944": "杯底",
    "2945": "杯數",
    "2946": "杯測",
    "2947": "東京",
    "2948": "東西",
    "2949": "析出",
    "2950": "林桑",
    "2951": "果",
    "2952": "果味",
    "2953": "果實",
    "2954": "果皮",
    "2955": "果酸",
    "2956": "果香",
    "2957": "柄",
    "2958": "某些",
    "2959": "某個",
    "2960": "某個點",
    "2961": "某種",
    "2962": "柑橘",
    "2963": "柔和",
    "2964": "柔滑",
    "2965": "柔細",
    "2966": "查看",
    "2967": "柱",
    "2968": "柱塞",
    "2969": "柱形",
    "2970": "核心",
    "2971": "根據",
    "2972": "根據個",
    "2973": "根本性",
    "2974": "格",
    "2975": "格將",
    "2976": "桌上",
    "2977": "條件",
    "2978": "梯形",
    "2979": "棒",
    "2980": "棕",
    "2981": "植物",
    "2982": "業者",
    "2983": "極",
    "2984": "極低",
    "2985": "極佳",
    "2986": "極其",
    "2987": "極大",
    "2988": "極客",
    "2989": "極度",
    "2990": "極慢",
    "2991": "極易",
    "2992": "極淡",
    "2993": "極為",
    "2994": "極短",
    "2995": "極細",
    "2996": "極致",
    "2997": "極致法",
    "2998": "極軟水",
    "2999": "極難",
    "3000": "極高",
    "3001": "概念",
    "3002": "榨",
    "3003": "榨出",
    "3004": "榨機",
    "3005": "構",
    "3006": "槽",
    "3007": "樂",
    "3008": "樂意",
    "3009": "樂趣",
    "3010": "標",
    "3011": "標明",
    "3012": "標準",
    "3013": "標準化",
    "3014": "標示",
    "3015": "標記",
    "3016": "標誌",
    "3017": "模式",
    "3018": "模糊",
    "3019": "樣",
    "3020": "樣貌",
    "3021": "樸",
    "3022": "樹",
    "3023": "樹脂",
    "3024": "機",
    "3025": "機來",
    "3026": "機判斷",
    "3027": "機器",
    "3028": "機型",
    "3029": "機壓力",
    "3030": "機時",
    "3031": "機更",
    "3032": "機為例",
    "3033": "機煮",
    "3034": "機特點",
    "3035": "機率",
    "3036": "機磨",
    "3037": "機種類",
    "3038": "機能",
    "3039": "機裡",
    "3040": "機要",
    "3041": "機身",
    "3042": "檢查",
    "3043": "檢測",
    "3044": "檸檬水",
    "3045": "檸檬酸質",
    "3046": "權衡",
    "3047": "次",
    "3048": "次悶",
    "3049": "次感",
    "3050": "次數",
    "3051": "次斷",
    "3052": "欲",
    "3053": "款式",
    "3054": "歇",
    "3055": "歡後段",
    "3056": "歡義式",
    "3057": "歡迎",
    "3058": "歡酸",
    "3059": "正",
    "3060": "正在",
    "3061": "正如",
    "3062": "正常",
    "3063": "正式",
    "3064": "正是",
    "3065": "正確",
    "3066": "此",
    "3067": "此刻",
    "3068": "此外",
    "3069": "此情",
    "3070": "此手",
    "3071": "此時",
    "3072": "此步",
    "3073": "此法",
    "3074": "此範圍",
    "3075": "步驟",
    "3076": "歷史",
    "3077": "歸",
    "3078": "死死地",
    "3079": "死角",
    "3080": "殘留",
    "3081": "殘粉",
    "3082": "段",
    "3083": "段注",
    "3084": "殺",
    "3085": "母液",
    "3086": "每",
    "3087": "每一個",
    "3088": "每一種",
    "3089": "每一顆",
    "3090": "每位",
    "3091": "每個",
    "3092": "每天",
    "3093": "每日",
    "3094": "每杯",
    "3095": "每次",
    "3096": "每種",
    "3097": "每項",
    "3098": "每顆",
    "3099": "比",
    "3100": "比亞",
    "3101": "比亞耶加",
    "3102": "比亞豆",
    "3103": "比來",
    "3104": "比例",
    "3105": "比傳統",
    "3106": "比及",
    "3107": "比建議",
    "3108": "比會",
    "3109": "比杯量",
    "3110": "比法",
    "3111": "比為",
    "3112": "比起",
    "3113": "比較",
    "3114": "比重",
    "3115": "毛巾",
    "3116": "氣味",
    "3117": "氣壓",
    "3118": "氣壓力",
    "3119": "氣泡",
    "3120": "氣體",
    "3121": "氫根",
    "3122": "氮氣",
    "3123": "氯氣",
    "3124": "水",
    "3125": "水一進",
    "3126": "水上",
    "3127": "水並",
    "3128": "水中",
    "3129": "水份",
    "3130": "水位",
    "3131": "水先",
    "3132": "水分",
    "3133": "水則",
    "3134": "水器",
    "3135": "水在",
    "3136": "水均",
    "3137": "水均勻",
    "3138": "水壓",
    "3139": "水壺",
    "3140": "水平",
    "3141": "水往",
    "3142": "水感",
    "3143": "水拉開",
    "3144": "水持續",
    "3145": "水放乾",
    "3146": "水放涼",
    "3147": "水是",
    "3148": "水時",
    "3149": "水會",
    "3150": "水果",
    "3151": "水柱",
    "3152": "水桶",
    "3153": "水比",
    "3154": "水沸",
    "3155": "水法",
    "3156": "水注",
    "3157": "水洗",
    "3158": "水流",
    "3159": "水流量",
    "3160": "水浸",
    "3161": "水浸泡",
    "3162": "水準",
    "3163": "水溫",
    "3164": "水溫會",
    "3165": "水滋潤",
    "3166": "水滴",
    "3167": "水煮",
    "3168": "水瓶",
    "3169": "水粉",
    "3170": "水能",
    "3171": "水蒸",
    "3172": "水裡",
    "3173": "水質",
    "3174": "水透過",
    "3175": "水進",
    "3176": "水量",
    "3177": "水面",
    "3178": "永遠",
    "3179": "求",
    "3180": "污染",
    "3181": "決",
    "3182": "決定",
    "3183": "決水質",
    "3184": "沉",
    "3185": "沉入",
    "3186": "沉悶",
    "3187": "沉浸",
    "3188": "沉穩",
    "3189": "沉醉",
    "3190": "沒",
    "3191": "沒有",
    "3192": "沒關",
    "3193": "沖",
    "3194": "沙漏",
    "3195": "河野",
    "3196": "沸水",
    "3197": "沸騰",
    "3198": "沸點",
    "3199": "油",
    "3200": "油脂",
    "3201": "沾",
    "3202": "況下",
    "3203": "法",
    "3204": "法使",
    "3205": "法壓",
    "3206": "法壓壺",
    "3207": "法子",
    "3208": "法式",
    "3209": "法是",
    "3210": "法會",
    "3211": "法會悶",
    "3212": "法相",
    "3213": "法而",
    "3214": "法能",
    "3215": "法衍",
    "3216": "法類",
    "3217": "泡",
    "3218": "泡出",
    "3219": "泡前",
    "3220": "泡器",
    "3221": "泡室",
    "3222": "泡式",
    "3223": "泡水",
    "3224": "泡沫",
    "3225": "泡法",
    "3226": "泡法則",
    "3227": "泡濾掛",
    "3228": "泡者",
    "3229": "泡茶",
    "3230": "泡階段",
    "3231": "波",
    "3232": "波浪",
    "3233": "波浪形",
    "3234": "注",
    "3235": "注下",
    "3236": "注入",
    "3237": "注完",
    "3238": "注意",
    "3239": "注水",
    "3240": "注水方式",
    "3241": "注滿",
    "3242": "注熱水",
    "3243": "注範圍",
    "3244": "泰山",
    "3245": "洗",
    "3246": "洗去",
    "3247": "洗掉",
    "3248": "洞",
    "3249": "洞心",
    "3250": "活塞",
    "3251": "活塞式",
    "3252": "活性碳",
    "3253": "流下",
    "3254": "流乾",
    "3255": "流乾才",
    "3256": "流乾時",
    "3257": "流入",
    "3258": "流出",
    "3259": "流失",
    "3260": "流孔",
    "3261": "流完",
    "3262": "流得",
    "3263": "流法",
    "3264": "流派",
    "3265": "流程",
    "3266": "流行",
    "3267": "流起",
    "3268": "流速",
    "3269": "流體",
    "3270": "浪費",
    "3271": "浮力",
    "3272": "浮渣",
    "3273": "海鹽",
    "3274": "浸入",
    "3275": "浸泡",
    "3276": "浸潤",
    "3277": "浸濕",
    "3278": "浸濕會",
    "3279": "浸濕濾紙",
    "3280": "浸透",
    "3281": "消化",
    "3282": "消失",
    "3283": "消耗",
    "3284": "消費",
    "3285": "消費者",
    "3286": "消除",
    "3287": "液",
    "3288": "液中",
    "3289": "液以",
    "3290": "液便",
    "3291": "液倒",
    "3292": "液可",
    "3293": "液和水",
    "3294": "液後結束",
    "3295": "液態",
    "3296": "液會",
    "3297": "液滴",
    "3298": "液調",
    "3299": "液變",
    "3300": "液變成",
    "3301": "液透過",
    "3302": "液通",
    "3303": "液醇度",
    "3304": "液量",
    "3305": "液面",
    "3306": "液體",
    "3307": "涼涼",
    "3308": "淡",
    "3309": "淡一點",
    "3310": "淡而",
    "3311": "淡薄",
    "3312": "淡雅",
    "3313": "深",
    "3314": "深入",
    "3315": "深入研究",
    "3316": "深刻",
    "3317": "深受",
    "3318": "深培豆",
    "3319": "深度",
    "3320": "深海",
    "3321": "深焙",
    "3322": "深焙豆",
    "3323": "深處",
    "3324": "混",
    "3325": "混入",
    "3326": "混合",
    "3327": "混合式",
    "3328": "混合物",
    "3329": "混在",
    "3330": "混淆",
    "3331": "混濁",
    "3332": "混著來",
    "3333": "淹沒過",
    "3334": "淺",
    "3335": "淺中",
    "3336": "淺培",
    "3337": "淺焙豆",
    "3338": "添加",
    "3339": "添購",
    "3340": "清單",
    "3341": "清新",
    "3342": "清晰",
    "3343": "清楚",
    "3344": "清水",
    "3345": "清洗",
    "3346": "清淡",
    "3347": "清潔",
    "3348": "清潔省",
    "3349": "清爽",
    "3350": "清理",
    "3351": "減少",
    "3352": "減緩",
    "3353": "渣",
    "3354": "渦",
    "3355": "測分",
    "3356": "測法",
    "3357": "測試",
    "3358": "測課",
    "3359": "測量",
    "3360": "測驗",
    "3361": "渾厚",
    "3362": "湊",
    "3363": "湯匙",
    "3364": "源自",
    "3365": "準備",
    "3366": "準確",
    "3367": "準確性",
    "3368": "溜",
    "3369": "溝通",
    "3370": "溢出",
    "3371": "溫",
    "3372": "溫介",
    "3373": "溫到",
    "3374": "溫則",
    "3375": "溫和不傷",
    "3376": "溫和注",
    "3377": "溫壺",
    "3378": "溫太低",
    "3379": "溫度",
    "3380": "溫度計",
    "3381": "溫控",
    "3382": "溫換",
    "3383": "溫杯",
    "3384": "溫柔",
    "3385": "溫水",
    "3386": "溫潤",
    "3387": "溫熱",
    "3388": "溫過",
    "3389": "溫降",
    "3390": "溫順",
    "3391": "溶",
    "3392": "溶入",
    "3393": "溶出",
    "3394": "溶劑",
    "3395": "溶解",
    "3396": "滋味",
    "3397": "滋潤",
    "3398": "滑",
    "3399": "滑倒",
    "3400": "滑順",
    "3401": "滑順度",
    "3402": "滲入",
    "3403": "滲濾",
    "3404": "滲濾器",
    "3405": "滲濾式",
    "3406": "滲透",
    "3407": "滲透進",
    "3408": "滴",
    "3409": "滴乾",
    "3410": "滴入",
    "3411": "滴出",
    "3412": "滴回",
    "3413": "滴式",
    "3414": "滴水",
    "3415": "滴法",
    "3416": "滴滿",
    "3417": "滴漏",
    "3418": "滴濾",
    "3419": "滴濾式",
    "3420": "滴落",
    "3421": "滴頭",
    "3422": "滾",
    "3423": "滿",
    "3424": "滿厚實",
    "3425": "滿意",
    "3426": "滿水",
    "3427": "滿滿",
    "3428": "滿濾杯",
    "3429": "滿足",
    "3430": "漂白",
    "3431": "漏斗",
    "3432": "演進",
    "3433": "漩",
    "3434": "漫長",
    "3435": "漬",
    "3436": "漸漸",
    "3437": "漸進",
    "3438": "漸釋",
    "3439": "潤濕",
    "3440": "潤濕濾紙",
    "3441": "潤紙",
    "3442": "澀",
    "3443": "澄澈",
    "3444": "澆",
    "3445": "澆注",
    "3446": "澤",
    "3447": "澱",
    "3448": "激流",
    "3449": "濃",
    "3450": "濃厚",
    "3451": "濃度",
    "3452": "濃淡",
    "3453": "濃淡度",
    "3454": "濃濃",
    "3455": "濃烈",
    "3456": "濃的",
    "3457": "濃稠",
    "3458": "濃縮",
    "3459": "濃縮型",
    "3460": "濃縮感",
    "3461": "濃縮機",
    "3462": "濃縮液",
    "3463": "濃縮物",
    "3464": "濃郁",
    "3465": "濃郁且",
    "3466": "濃郁厚實",
    "3467": "濃郁感",
    "3468": "濃醇",
    "3469": "濕",
    "3470": "濕潤",
    "3471": "濕濾紙",
    "3472": "濕香",
    "3473": "濾",
    "3474": "濾器",
    "3475": "濾壓壺",
    "3476": "濾布",
    "3477": "濾式",
    "3478": "濾掉",
    "3479": "濾掛",
    "3480": "濾掛式",
    "3481": "濾杯",
    "3482": "濾杯則",
    "3483": "濾杯裡",
    "3484": "濾水壺",
    "3485": "濾泡",
    "3486": "濾泡式",
    "3487": "濾渣",
    "3488": "濾籃",
    "3489": "濾紙",
    "3490": "濾紙則",
    "3491": "濾紙屬",
    "3492": "濾紙會",
    "3493": "濾網",
    "3494": "濾蓋",
    "3495": "濾袋掛",
    "3496": "瀉",
    "3497": "火",
    "3498": "火上",
    "3499": "火候",
    "3500": "火源",
    "3501": "火焰",
    "3502": "炎熱",
    "3503": "炫耀",
    "3504": "為",
    "3505": "為主",
    "3506": "為何",
    "3507": "為佳",
    "3508": "為例",
    "3509": "為手",
    "3510": "為止",
    "3511": "烘烤",
    "3512": "烘焙",
    "3513": "烘豆",
    "3514": "烤",
    "3515": "焙",
    "3516": "焙度",
    "3517": "焙烤",
    "3518": "無",
    "3519": "無力",
    "3520": "無味",
    "3521": "無損",
    "3522": "無殘留",
    "3523": "無法",
    "3524": "無法產",
    "3525": "無濾紙",
    "3526": "無異味",
    "3527": "無論",
    "3528": "無障礙",
    "3529": "無需",
    "3530": "焦",
    "3531": "焦味",
    "3532": "焦慮",
    "3533": "焦澀",
    "3534": "焦糖",
    "3535": "焦苦",
    "3536": "然",
    "3537": "然後再",
    "3538": "然後將",
    "3539": "然後持續",
    "3540": "然後用",
    "3541": "然而",
    "3542": "煙",
    "3543": "煩惱",
    "3544": "煮",
    "3545": "煮水",
    "3546": "煮沸",
    "3547": "煮沸法",
    "3548": "煮法",
    "3549": "煮頭",
    "3550": "熄滅",
    "3551": "熟悉",
    "3552": "熱",
    "3553": "熱下壺",
    "3554": "熱力",
    "3555": "熱力學",
    "3556": "熱度",
    "3557": "熱愛",
    "3558": "熱水",
    "3559": "熱水並",
    "3560": "熱水以",
    "3561": "熱水因",
    "3562": "熱水後靜置",
    "3563": "熱水悶",
    "3564": "熱水會",
    "3565": "熱水為",
    "3566": "熱沙",
    "3567": "熱源",
    "3568": "熱熱",
    "3569": "熱產生",
    "3570": "熱的",
    "3571": "熱能",
    "3572": "熱脹",
    "3573": "熱萃",
    "3574": "熱質",
    "3575": "熱量",
    "3576": "熱門",
    "3577": "熱開水",
    "3578": "熱騰騰",
    "3579": "燃木珈",
    "3580": "燃燒器",
    "3581": "燈",
    "3582": "燈加",
    "3583": "燈泡",
    "3584": "燒",
    "3585": "燒杯",
    "3586": "燒水",
    "3587": "燙傷",
    "3588": "營時",
    "3589": "營業用",
    "3590": "營造",
    "3591": "燻",
    "3592": "爆發性",
    "3593": "爐",
    "3594": "爐灶",
    "3595": "爬升",
    "3596": "牆",
    "3597": "版本",
    "3598": "牛奶",
    "3599": "牢固",
    "3600": "物",
    "3601": "物品",
    "3602": "物料",
    "3603": "物理",
    "3604": "物質",
    "3605": "特仕版",
    "3606": "特別",
    "3607": "特徵",
    "3608": "特性",
    "3609": "特技",
    "3610": "特有",
    "3611": "特殊",
    "3612": "特色",
    "3613": "特調",
    "3614": "特質",
    "3615": "特選中",
    "3616": "特點",
    "3617": "犯",
    "3618": "狀",
    "3619": "狀地",
    "3620": "狀態",
    "3621": "狀況",
    "3622": "獨一無二",
    "3623": "獨一無二且",
    "3624": "獨具",
    "3625": "獨家",
    "3626": "獨特",
    "3627": "獨特之處",
    "3628": "獨特風味",
    "3629": "獲",
    "3630": "獲得",
    "3631": "玄學",
    "3632": "率",
    "3633": "率時",
    "3634": "率討論",
    "3635": "玩家",
    "3636": "玻璃",
    "3637": "玻璃杯",
    "3638": "玻璃球",
    "3639": "玻璃瓶",
    "3640": "玻璃管",
    "3641": "珍貴",
    "3642": "現",
    "3643": "現代人",
    "3644": "現出",
    "3645": "現厚實",
    "3646": "現在",
    "3647": "現度",
    "3648": "現手",
    "3649": "現煮",
    "3650": "現磨",
    "3651": "現磨現",
    "3652": "現許",
    "3653": "現象",
    "3654": "球內",
    "3655": "理想",
    "3656": "理法",
    "3657": "理解",
    "3658": "理論",
    "3659": "琲",
    "3660": "琺瑯",
    "3661": "瑪奇朵",
    "3662": "環",
    "3663": "環保",
    "3664": "環保者",
    "3665": "環境",
    "3666": "環節",
    "3667": "瓜地",
    "3668": "瓶",
    "3669": "瓶身",
    "3670": "甘甜",
    "3671": "甘美",
    "3672": "甘苦",
    "3673": "甚至",
    "3674": "甜",
    "3675": "甜味",
    "3676": "甜度",
    "3677": "甜感",
    "3678": "甜感及",
    "3679": "甜美",
    "3680": "生成",
    "3681": "生活",
    "3682": "生理",
    "3683": "生產",
    "3684": "生產區域",
    "3685": "生疑",
    "3686": "生義式",
    "3687": "生豆",
    "3688": "生鮮",
    "3689": "產出",
    "3690": "產區",
    "3691": "產品",
    "3692": "產品還",
    "3693": "產地",
    "3694": "產生",
    "3695": "用",
    "3696": "用來",
    "3697": "用來量",
    "3698": "用到",
    "3699": "用力",
    "3700": "用同",
    "3701": "用極細",
    "3702": "用水",
    "3703": "用溫",
    "3704": "用熱水",
    "3705": "用繞",
    "3706": "用途",
    "3707": "用量",
    "3708": "由",
    "3709": "由傳",
    "3710": "由內",
    "3711": "由潔",
    "3712": "由濾器",
    "3713": "男",
    "3714": "男子",
    "3715": "界",
    "3716": "界大師",
    "3717": "界最受",
    "3718": "留下",
    "3719": "留出",
    "3720": "留在",
    "3721": "留意",
    "3722": "留有",
    "3723": "留言",
    "3724": "畢後再",
    "3725": "畢竟",
    "3726": "略嫌",
    "3727": "畫啥",
    "3728": "畫圈",
    "3729": "畫圓",
    "3730": "畫至",
    "3731": "畫蛇",
    "3732": "異",
    "3733": "異味",
    "3734": "當",
    "3735": "當下",
    "3736": "當下壺",
    "3737": "當中",
    "3738": "當他",
    "3739": "當作",
    "3740": "當你",
    "3741": "當你覺",
    "3742": "當我們",
    "3743": "當手",
    "3744": "當擾動",
    "3745": "當日",
    "3746": "當有",
    "3747": "當然",
    "3748": "當熱",
    "3749": "當粉",
    "3750": "當累",
    "3751": "疊",
    "3752": "疑慮",
    "3753": "疲憊",
    "3754": "瘋狂",
    "3755": "療",
    "3756": "癒",
    "3757": "登山",
    "3758": "發",
    "3759": "發出",
    "3760": "發展",
    "3761": "發揮",
    "3762": "發明",
    "3763": "發熱",
    "3764": "發現",
    "3765": "發生",
    "3766": "發酵",
    "3767": "白",
    "3768": "白砂糖",
    "3769": "白色",
    "3770": "白變",
    "3771": "百分之百",
    "3772": "百種",
    "3773": "百花",
    "3774": "百變",
    "3775": "的",
    "3776": "的壺",
    "3777": "的熱",
    "3778": "的關",
    "3779": "皆",
    "3780": "益友",
    "3781": "盎司",
    "3782": "盛接",
    "3783": "盛裝",
    "3784": "盛裝手",
    "3785": "盡",
    "3786": "盡情",
    "3787": "盡量",
    "3788": "目前",
    "3789": "目的",
    "3790": "目錄",
    "3791": "盲區",
    "3792": "盲測",
    "3793": "盲目",
    "3794": "直到",
    "3795": "直接",
    "3796": "直粉",
    "3797": "直至",
    "3798": "直觀",
    "3799": "相",
    "3800": "相似",
    "3801": "相信",
    "3802": "相反",
    "3803": "相同",
    "3804": "相宜",
    "3805": "相對",
    "3806": "相對溫",
    "3807": "相應",
    "3808": "相扣",
    "3809": "相比",
    "3810": "相當",
    "3811": "相符",
    "3812": "相較",
    "3813": "相配合",
    "3814": "相關",
    "3815": "省",
    "3816": "省略",
    "3817": "看",
    "3818": "看似",
    "3819": "看出",
    "3820": "看到",
    "3821": "看待",
    "3822": "看步昂",
    "3823": "看法",
    "3824": "看準",
    "3825": "看看",
    "3826": "看過",
    "3827": "真實",
    "3828": "真正",
    "3829": "真的",
    "3830": "真空",
    "3831": "眾多",
    "3832": "眾所",
    "3833": "瞬間",
    "3834": "知識",
    "3835": "知道",
    "3836": "短",
    "3837": "短則",
    "3838": "短時間",
    "3839": "短會",
    "3840": "短視",
    "3841": "砂糖",
    "3842": "研磨",
    "3843": "研磨成粉",
    "3844": "研究所",
    "3845": "破",
    "3846": "破壞",
    "3847": "破裂",
    "3848": "破解",
    "3849": "砸",
    "3850": "硝基",
    "3851": "硫酸",
    "3852": "硬度",
    "3853": "硬水",
    "3854": "硬派",
    "3855": "碎裂",
    "3856": "碟",
    "3857": "碰到",
    "3858": "碳酸",
    "3859": "確保",
    "3860": "確保壺",
    "3861": "確保熱",
    "3862": "確定",
    "3863": "確性",
    "3864": "確認",
    "3865": "磁吸快",
    "3866": "磅秤",
    "3867": "磨",
    "3868": "磨到",
    "3869": "磨好",
    "3870": "磨得",
    "3871": "磨成",
    "3872": "磨盤",
    "3873": "磨碎",
    "3874": "磨細",
    "3875": "磨至略",
    "3876": "磨豆",
    "3877": "磨豆時",
    "3878": "磨豆機",
    "3879": "礙",
    "3880": "礦物質",
    "3881": "示範濾杯",
    "3882": "社群",
    "3883": "祕",
    "3884": "神奇",
    "3885": "福音",
    "3886": "禪意",
    "3887": "秉直",
    "3888": "科學",
    "3889": "科學家",
    "3890": "科學感",
    "3891": "秒",
    "3892": "秒左右",
    "3893": "秘訣",
    "3894": "秤",
    "3895": "秤取",
    "3896": "移",
    "3897": "移動",
    "3898": "移去",
    "3899": "移開",
    "3900": "移除",
    "3901": "稀釋",
    "3902": "程",
    "3903": "程序",
    "3904": "程度",
    "3905": "程產生",
    "3906": "稍",
    "3907": "稍低",
    "3908": "稍弱",
    "3909": "稍微",
    "3910": "種",
    "3911": "種常見",
    "3912": "種形",
    "3913": "種手",
    "3914": "種的",
    "3915": "種經典",
    "3916": "種類",
    "3917": "稱",
    "3918": "稱作",
    "3919": "稱為",
    "3920": "積",
    "3921": "積存",
    "3922": "積木",
    "3923": "積水",
    "3924": "積減",
    "3925": "積越",
    "3926": "穩",
    "3927": "穩且",
    "3928": "穩定",
    "3929": "穩定度",
    "3930": "穩重",
    "3931": "穫",
    "3932": "究竟",
    "3933": "空氣",
    "3934": "空氣層",
    "3935": "空洞",
    "3936": "空濾紙",
    "3937": "空間",
    "3938": "空隙",
    "3939": "穿透",
    "3940": "穿過",
    "3941": "突出",
    "3942": "突破",
    "3943": "竅",
    "3944": "竅門",
    "3945": "立刻",
    "3946": "立即",
    "3947": "立案",
    "3948": "笑",
    "3949": "符合",
    "3950": "第",
    "3951": "第一",
    "3952": "第一支",
    "3953": "第一次",
    "3954": "第一步",
    "3955": "第一段",
    "3956": "第一道",
    "3957": "第三",
    "3958": "第三次",
    "3959": "第二",
    "3960": "第二次",
    "3961": "第四次",
    "3962": "第四步",
    "3963": "等",
    "3964": "等到",
    "3965": "等待",
    "3966": "等等",
    "3967": "等級",
    "3968": "答案",
    "3969": "答臘",
    "3970": "策略",
    "3971": "管",
    "3972": "管子",
    "3973": "管理",
    "3974": "節奏",
    "3975": "節省",
    "3976": "範圍",
    "3977": "篇文章",
    "3978": "篩",
    "3979": "篩出",
    "3980": "篩子",
    "3981": "篩網",
    "3982": "簡便",
    "3983": "簡單",
    "3984": "簡易",
    "3985": "簡易步",
    "3986": "簡稱",
    "3987": "簡約",
    "3988": "籃子",
    "3989": "籤",
    "3990": "粉",
    "3991": "粉包",
    "3992": "粉器",
    "3993": "粉塊",
    "3994": "粉層",
    "3995": "粉床",
    "3996": "粉必須",
    "3997": "粉末",
    "3998": "粉水",
    "3999": "粉狀",
    "4000": "粉變",
    "4001": "粉變細",
    "4002": "粉越細",
    "4003": "粉重",
    "4004": "粉量",
    "4005": "粉針",
    "4006": "粉間",
    "4007": "粉面",
    "4008": "粉餅",
    "4009": "粒",
    "4010": "粒均勻",
    "4011": "粒度",
    "4012": "粒徑",
    "4013": "粒調",
    "4014": "粕",
    "4015": "粗",
    "4016": "粗一點",
    "4017": "粗度",
    "4018": "粗時",
    "4019": "粗暴",
    "4020": "粗水",
    "4021": "粗海鹽",
    "4022": "粗磨",
    "4023": "粗細",
    "4024": "粗細始",
    "4025": "粗細度",
    "4026": "粗細約",
    "4027": "粗鹽",
    "4028": "精",
    "4029": "精品",
    "4030": "精妙",
    "4031": "精密",
    "4032": "精專",
    "4033": "精準",
    "4034": "精準度",
    "4035": "精準性",
    "4036": "精確",
    "4037": "精神",
    "4038": "精細",
    "4039": "精華",
    "4040": "精華風味",
    "4041": "精髓",
    "4042": "糖",
    "4043": "糟糕",
    "4044": "系",
    "4045": "系列",
    "4046": "系統",
    "4047": "糾結成",
    "4048": "約",
    "4049": "約細",
    "4050": "約轉",
    "4051": "紅茶",
    "4052": "紅蘋",
    "4053": "紋路",
    "4054": "純",
    "4055": "純水",
    "4056": "純水極",
    "4057": "純淨",
    "4058": "純粹",
    "4059": "紙則",
    "4060": "紙味",
    "4061": "紙和",
    "4062": "紙壁",
    "4063": "紙張",
    "4064": "紙張味",
    "4065": "紙漿",
    "4066": "紙濾網",
    "4067": "紙質",
    "4068": "紙過",
    "4069": "級",
    "4070": "紮",
    "4071": "累積",
    "4072": "細",
    "4073": "細一點",
    "4074": "細些",
    "4075": "細口",
    "4076": "細口壺",
    "4077": "細嘴",
    "4078": "細嘴壺",
    "4079": "細小",
    "4080": "細小顆",
    "4081": "細心",
    "4082": "細沙之間",
    "4083": "細磨",
    "4084": "細節",
    "4085": "細粉",
    "4086": "細粉量",
    "4087": "細細",
    "4088": "細網",
    "4089": "細線",
    "4090": "細緩",
    "4091": "細胞",
    "4092": "細胞壁",
    "4093": "細膩",
    "4094": "細膩度",
    "4095": "細至",
    "4096": "細長",
    "4097": "終如",
    "4098": "終會",
    "4099": "終極",
    "4100": "終端",
    "4101": "終點",
    "4102": "組",
    "4103": "組合",
    "4104": "組成",
    "4105": "組推薦",
    "4106": "組織",
    "4107": "組裝",
    "4108": "結",
    "4109": "結合",
    "4110": "結合手",
    "4111": "結實",
    "4112": "結束",
    "4113": "結果",
    "4114": "結構",
    "4115": "結語",
    "4116": "絕佳",
    "4117": "絕對",
    "4118": "絕對會",
    "4119": "絕非",
    "4120": "給",
    "4121": "給喜歡",
    "4122": "統一",
    "4123": "統化",
    "4124": "統手",
    "4125": "統整",
    "4126": "統整給",
    "4127": "絲",
    "4128": "經典",
    "4129": "經常",
    "4130": "經歷",
    "4131": "經濟",
    "4132": "經營",
    "4133": "經由",
    "4134": "經過",
    "4135": "經驗",
    "4136": "維",
    "4137": "維持",
    "4138": "維護",
    "4139": "網",
    "4140": "網壓",
    "4141": "網會",
    "4142": "網狀",
    "4143": "網蓋",
    "4144": "緊",
    "4145": "緊密",
    "4146": "緊實",
    "4147": "緊張",
    "4148": "緊鎖",
    "4149": "線條",
    "4150": "緣",
    "4151": "緣並",
    "4152": "編輯",
    "4153": "緩下",
    "4154": "緩慢",
    "4155": "緩緩",
    "4156": "緩衝",
    "4157": "緩衝劑",
    "4158": "練",
    "4159": "練功",
    "4160": "練習",
    "4161": "緻",
    "4162": "縫隙",
    "4163": "縮",
    "4164": "縮短",
    "4165": "總",
    "4166": "總共分",
    "4167": "總會",
    "4168": "總有",
    "4169": "總注",
    "4170": "總結",
    "4171": "總覺",
    "4172": "總計",
    "4173": "總重",
    "4174": "繁多",
    "4175": "繁瑣",
    "4176": "繞",
    "4177": "繞圈",
    "4178": "繼續",
    "4179": "續",
    "4180": "纖維",
    "4181": "缺乏",
    "4182": "缺點",
    "4183": "置",
    "4184": "置入",
    "4185": "羅",
    "4186": "美味",
    "4187": "美好",
    "4188": "美妙",
    "4189": "美式",
    "4190": "義",
    "4191": "義式",
    "4192": "習個",
    "4193": "習慣",
    "4194": "習手",
    "4195": "翻",
    "4196": "翻滾",
    "4197": "老",
    "4198": "老鼠",
    "4199": "考慮",
    "4200": "考量",
    "4201": "考驗",
    "4202": "考驗手",
    "4203": "者",
    "4204": "而",
    "4205": "而且",
    "4206": "而來",
    "4207": "而外",
    "4208": "而定",
    "4209": "而手",
    "4210": "而是",
    "4211": "而水",
    "4212": "而水溫",
    "4213": "而濾",
    "4214": "而濾杯",
    "4215": "而產生",
    "4216": "而義式",
    "4217": "而膨脹",
    "4218": "而言",
    "4219": "而購",
    "4220": "耐心",
    "4221": "耐用",
    "4222": "耗材",
    "4223": "耳掛",
    "4224": "耶加雪菲",
    "4225": "耶加雪菲時",
    "4226": "聊聊",
    "4227": "聖",
    "4228": "聚集",
    "4229": "聰明",
    "4230": "職人",
    "4231": "聽",
    "4232": "聽起",
    "4233": "肋骨",
    "4234": "肌肉",
    "4235": "肯亞",
    "4236": "胃",
    "4237": "背後其",
    "4238": "背景",
    "4239": "能",
    "4240": "能凸",
    "4241": "能力",
    "4242": "能品",
    "4243": "能均勻",
    "4244": "能夠",
    "4245": "能帶",
    "4246": "能手",
    "4247": "能為",
    "4248": "能用",
    "4249": "能確",
    "4250": "能縮",
    "4251": "能過",
    "4252": "能達成",
    "4253": "能釋",
    "4254": "脂",
    "4255": "脂肪",
    "4256": "脆弱",
    "4257": "脆餅",
    "4258": "脈絡",
    "4259": "膠囊",
    "4260": "膠木",
    "4261": "膨脹",
    "4262": "自",
    "4263": "自來",
    "4264": "自動",
    "4265": "自始",
    "4266": "自家",
    "4267": "自己",
    "4268": "自我",
    "4269": "自然",
    "4270": "自煮",
    "4271": "自由",
    "4272": "自行",
    "4273": "自身",
    "4274": "臭味",
    "4275": "至",
    "4276": "至上",
    "4277": "至今",
    "4278": "至壺",
    "4279": "至於",
    "4280": "至終",
    "4281": "至關",
    "4282": "致力",
    "4283": "舀",
    "4284": "與",
    "4285": "興",
    "4286": "興起",
    "4287": "舉例",
    "4288": "舉地",
    "4289": "舊",
    "4290": "舒服",
    "4291": "舒適",
    "4292": "般",
    "4293": "般的",
    "4294": "般細長",
    "4295": "良好",
    "4296": "良師",
    "4297": "色澤",
    "4298": "芙",
    "4299": "芬芳",
    "4300": "芯",
    "4301": "芯刀盤",
    "4302": "花",
    "4303": "花式",
    "4304": "花果",
    "4305": "花生",
    "4306": "花較",
    "4307": "花開",
    "4308": "花香",
    "4309": "芳香",
    "4310": "若",
    "4311": "若喜",
    "4312": "若想",
    "4313": "若為",
    "4314": "若無膨脹",
    "4315": "若要",
    "4316": "若覺",
    "4317": "苦",
    "4318": "苦味",
    "4319": "苦感",
    "4320": "苦澀",
    "4321": "苦甜",
    "4322": "英國",
    "4323": "英文",
    "4324": "茉莉花",
    "4325": "茶",
    "4326": "茶壺",
    "4327": "草本",
    "4328": "莊園",
    "4329": "莓類",
    "4330": "莫過",
    "4331": "萃取",
    "4332": "萃取液",
    "4333": "萬一產品",
    "4334": "萬元",
    "4335": "萬無一失",
    "4336": "萬用",
    "4337": "萬變",
    "4338": "落",
    "4339": "落下",
    "4340": "落入",
    "4341": "落定",
    "4342": "落水",
    "4343": "著",
    "4344": "著一種",
    "4345": "著名",
    "4346": "著手",
    "4347": "著迷",
    "4348": "蒸",
    "4349": "蒸氣",
    "4350": "蒸氣壓",
    "4351": "蒸汽",
    "4352": "蒸發",
    "4353": "蒸階段",
    "4354": "蒸餾水",
    "4355": "蓋",
    "4356": "蓋上",
    "4357": "蓋子",
    "4358": "蓬勃",
    "4359": "薄",
    "4360": "薄一點",
    "4361": "藉以",
    "4362": "藉此",
    "4363": "藉由",
    "4364": "藍山",
    "4365": "藏私",
    "4366": "藝妓",
    "4367": "藝術",
    "4368": "藝術感",
    "4369": "藥劑",
    "4370": "蘇門",
    "4371": "蘊藏",
    "4372": "處",
    "4373": "處理",
    "4374": "號",
    "4375": "虹吸",
    "4376": "虹吸式",
    "4377": "虹吸管",
    "4378": "蛋白",
    "4379": "蜂巢",
    "4380": "蜂蜜",
    "4381": "蜜處理",
    "4382": "蜻蜓",
    "4383": "融入",
    "4384": "融化",
    "4385": "融合",
    "4386": "螺旋",
    "4387": "蠟燭",
    "4388": "行悶",
    "4389": "行手",
    "4390": "行都",
    "4391": "衍生",
    "4392": "術",
    "4393": "術語",
    "4394": "衛",
    "4395": "衛生",
    "4396": "衝出",
    "4397": "衝勁",
    "4398": "衝高",
    "4399": "衣索",
    "4400": "表",
    "4401": "表格",
    "4402": "表演",
    "4403": "表現",
    "4404": "表示",
    "4405": "表達",
    "4406": "表面",
    "4407": "袋",
    "4408": "被",
    "4409": "被譽",
    "4410": "裂縫",
    "4411": "裏",
    "4412": "補充",
    "4413": "補滿",
    "4414": "裝上",
    "4415": "裝備",
    "4416": "裝好",
    "4417": "裝有",
    "4418": "裝滿",
    "4419": "裝滿水",
    "4420": "裝置",
    "4421": "裝進",
    "4422": "裡",
    "4423": "裡有",
    "4424": "裡的",
    "4425": "裡面",
    "4426": "製",
    "4427": "複",
    "4428": "褐色",
    "4429": "要",
    "4430": "要夠",
    "4431": "要悶",
    "4432": "要是",
    "4433": "要求",
    "4434": "要用",
    "4435": "要確",
    "4436": "要素",
    "4437": "要花",
    "4438": "要調",
    "4439": "要點",
    "4440": "見",
    "4441": "見仁見",
    "4442": "規則",
    "4443": "規定",
    "4444": "規格",
    "4445": "規模",
    "4446": "視",
    "4447": "視個",
    "4448": "視情況",
    "4449": "視為",
    "4450": "視覺",
    "4451": "視野",
    "4452": "親",
    "4453": "親手",
    "4454": "覺得",
    "4455": "觀察",
    "4456": "觀察到",
    "4457": "觀察水",
    "4458": "觀察注",
    "4459": "觀察電子",
    "4460": "觀念",
    "4461": "觀念加",
    "4462": "觀眾",
    "4463": "觀賞性",
    "4464": "角度",
    "4465": "角色",
    "4466": "解",
    "4467": "解手",
    "4468": "解救",
    "4469": "解析",
    "4470": "解決",
    "4471": "解釋",
    "4472": "觸",
    "4473": "訂",
    "4474": "計來",
    "4475": "計來確",
    "4476": "計時",
    "4477": "計時器",
    "4478": "計算",
    "4479": "計較",
    "4480": "計輔助",
    "4481": "訊",
    "4482": "討手",
    "4483": "討論",
    "4484": "訓練",
    "4485": "訓練手",
    "4486": "記住",
    "4487": "記得",
    "4488": "記得將",
    "4489": "記憶",
    "4490": "記憶庫",
    "4491": "記錄",
    "4492": "訣",
    "4493": "訣竅",
    "4494": "設備",
    "4495": "設備過",
    "4496": "設定",
    "4497": "設有",
    "4498": "設計",
    "4499": "許多",
    "4500": "許多人",
    "4501": "註",
    "4502": "評估",
    "4503": "評分",
    "4504": "評測",
    "4505": "評鑑",
    "4506": "詞",
    "4507": "試",
    "4508": "試手",
    "4509": "試斷",
    "4510": "試用",
    "4511": "試著",
    "4512": "試試",
    "4513": "試酸香",
    "4514": "試飲",
    "4515": "試驗",
    "4516": "話",
    "4517": "該",
    "4518": "詳細",
    "4519": "認為",
    "4520": "認真",
    "4521": "認粉",
    "4522": "認識",
    "4523": "認識義式",
    "4524": "語",
    "4525": "語言",
    "4526": "語速",
    "4527": "誠心",
    "4528": "誤並",
    "4529": "說",
    "4530": "說明",
    "4531": "說法",
    "4532": "說粕",
    "4533": "誰",
    "4534": "課",
    "4535": "課程",
    "4536": "調",
    "4537": "調低",
    "4538": "調性",
    "4539": "調控",
    "4540": "調整",
    "4541": "調節",
    "4542": "調粗",
    "4543": "調細",
    "4544": "調至",
    "4545": "調配",
    "4546": "調高",
    "4547": "談論",
    "4548": "請",
    "4549": "請務必",
    "4550": "請永遠",
    "4551": "論述",
    "4552": "論點",
    "4553": "講究",
    "4554": "證明",
    "4555": "變",
    "4556": "變化",
    "4557": "變因",
    "4558": "變大師",
    "4559": "變得",
    "4560": "變慢",
    "4561": "變成",
    "4562": "變換",
    "4563": "變數",
    "4564": "變明顯",
    "4565": "變淡",
    "4566": "變澀",
    "4567": "變緩慢",
    "4568": "變苦",
    "4569": "變酸",
    "4570": "變量",
    "4571": "變長",
    "4572": "變風味",
    "4573": "讓",
    "4574": "讓壺",
    "4575": "讓後續",
    "4576": "讓熱",
    "4577": "谷",
    "4578": "谷哲",
    "4579": "豆",
    "4580": "豆來",
    "4581": "豆匙",
    "4582": "豆單",
    "4583": "豆子",
    "4584": "豆展",
    "4585": "豆有",
    "4586": "豆機",
    "4587": "豆款",
    "4588": "豆用",
    "4589": "豆種",
    "4590": "豆粉",
    "4591": "豆質",
    "4592": "豆量",
    "4593": "豆開始",
    "4594": "豐富",
    "4595": "豔",
    "4596": "負責",
    "4597": "負責容納",
    "4598": "負責將",
    "4599": "貢獻",
    "4600": "販售",
    "4601": "買",
    "4602": "買來",
    "4603": "買來源",
    "4604": "買到",
    "4605": "費放上",
    "4606": "費用",
    "4607": "費者",
    "4608": "貼",
    "4609": "貼合",
    "4610": "貼合杯",
    "4611": "資",
    "4612": "資深",
    "4613": "資源",
    "4614": "資訊",
    "4615": "資訊僅",
    "4616": "賞味期",
    "4617": "賞性",
    "4618": "賞用",
    "4619": "質",
    "4620": "質優良",
    "4621": "質地",
    "4622": "質感",
    "4623": "質會",
    "4624": "質量",
    "4625": "購入",
    "4626": "購手",
    "4627": "購置",
    "4628": "購買",
    "4629": "贏得",
    "4630": "走",
    "4631": "走向",
    "4632": "起",
    "4633": "起來",
    "4634": "起初",
    "4635": "起始",
    "4636": "起家",
    "4637": "起步",
    "4638": "起源",
    "4639": "起濾器",
    "4640": "起濾杯",
    "4641": "起高溫",
    "4642": "起點",
    "4643": "趁熱",
    "4644": "超",
    "4645": "超市",
    "4646": "超過",
    "4647": "超高",
    "4648": "越",
    "4649": "越久則",
    "4650": "越來",
    "4651": "越加",
    "4652": "越大",
    "4653": "越強",
    "4654": "越慢",
    "4655": "越濃",
    "4656": "越無法",
    "4657": "越短",
    "4658": "越細",
    "4659": "越苦",
    "4660": "越長",
    "4661": "越高",
    "4662": "趕時間",
    "4663": "趣味",
    "4664": "趨勢",
    "4665": "趨近",
    "4666": "足",
    "4667": "足夠",
    "4668": "足量",
    "4669": "距離",
    "4670": "跟",
    "4671": "跨越",
    "4672": "路",
    "4673": "路徑",
    "4674": "踩",
    "4675": "躍躍欲試",
    "4676": "身",
    "4677": "身均勻",
    "4678": "身為",
    "4679": "身體",
    "4680": "軍",
    "4681": "軟水",
    "4682": "較",
    "4683": "較佳",
    "4684": "較大",
    "4685": "較小顆",
    "4686": "較少",
    "4687": "較弱",
    "4688": "較強",
    "4689": "較快",
    "4690": "較慢",
    "4691": "較期",
    "4692": "較淡",
    "4693": "較濃",
    "4694": "較細",
    "4695": "較能",
    "4696": "較費心",
    "4697": "較重",
    "4698": "較長",
    "4699": "較難",
    "4700": "輕",
    "4701": "輕便",
    "4702": "輕巧",
    "4703": "輕扶壺",
    "4704": "輕拍",
    "4705": "輕易",
    "4706": "輕晃動",
    "4707": "輕柔",
    "4708": "輕的關",
    "4709": "輕盈",
    "4710": "輕而易",
    "4711": "輕輕",
    "4712": "輕輕旋",
    "4713": "輪",
    "4714": "輪來",
    "4715": "輪廓",
    "4716": "轉下壓",
    "4717": "轉以",
    "4718": "轉化",
    "4719": "轉型",
    "4720": "轉成",
    "4721": "轉折",
    "4722": "轉為",
    "4723": "轉粉",
    "4724": "轉至",
    "4725": "轉譯",
    "4726": "轉變",
    "4727": "辛辣",
    "4728": "辦",
    "4729": "農場",
    "4730": "迅速",
    "4731": "迎",
    "4732": "迎接",
    "4733": "近",
    "4734": "近乎零",
    "4735": "近代",
    "4736": "近年",
    "4737": "近幾年",
    "4738": "返回",
    "4739": "迫使",
    "4740": "迷",
    "4741": "迷人",
    "4742": "迷們",
    "4743": "迷茫",
    "4744": "追求",
    "4745": "追溯到",
    "4746": "送",
    "4747": "逆",
    "4748": "逆時針",
    "4749": "逆滲",
    "4750": "透徹",
    "4751": "透明",
    "4752": "透水",
    "4753": "透過",
    "4754": "逐次",
    "4755": "逐步",
    "4756": "逐段",
    "4757": "逐漸",
    "4758": "這",
    "4759": "這並",
    "4760": "這也",
    "4761": "這些",
    "4762": "這件",
    "4763": "這份",
    "4764": "這個",
    "4765": "這兩次",
    "4766": "這其實",
    "4767": "這包",
    "4768": "這取",
    "4769": "這四個",
    "4770": "這壓力",
    "4771": "這套",
    "4772": "這將",
    "4773": "這幾年",
    "4774": "這招",
    "4775": "這支",
    "4776": "這是",
    "4777": "這是將",
    "4778": "這時將",
    "4779": "這杯",
    "4780": "這樣",
    "4781": "這次",
    "4782": "這為",
    "4783": "這種",
    "4784": "這篇",
    "4785": "這純粹",
    "4786": "這背",
    "4787": "這能",
    "4788": "這裡",
    "4789": "這超",
    "4790": "這還",
    "4791": "這邊",
    "4792": "這部",
    "4793": "這都",
    "4794": "這項",
    "4795": "這麼",
    "4796": "通常",
    "4797": "通透性",
    "4798": "通過",
    "4799": "通道",
    "4800": "速",
    "4801": "速度",
    "4802": "速度慢",
    "4803": "速解",
    "4804": "造",
    "4805": "造型",
    "4806": "造就",
    "4807": "造成",
    "4808": "造酒",
    "4809": "連續",
    "4810": "進",
    "4811": "進下壺",
    "4812": "進入",
    "4813": "進去",
    "4814": "進均",
    "4815": "進濾",
    "4816": "進純",
    "4817": "進而",
    "4818": "進而導致",
    "4819": "進行",
    "4820": "進行後續",
    "4821": "進行悶",
    "4822": "進階",
    "4823": "進階指導",
    "4824": "逼",
    "4825": "逼使",
    "4826": "遇到",
    "4827": "運作",
    "4828": "運動",
    "4829": "運用",
    "4830": "過",
    "4831": "過久",
    "4832": "過加",
    "4833": "過去",
    "4834": "過壓實",
    "4835": "過多",
    "4836": "過度",
    "4837": "過強",
    "4838": "過後的",
    "4839": "過快",
    "4840": "過悶",
    "4841": "過慢",
    "4842": "過於稀釋",
    "4843": "過氣",
    "4844": "過濾",
    "4845": "過濾以",
    "4846": "過濾出",
    "4847": "過濾及",
    "4848": "過濾器",
    "4849": "過濾式",
    "4850": "過濾法",
    "4851": "過濾紙",
    "4852": "過的",
    "4853": "過短",
    "4854": "過程",
    "4855": "過程會",
    "4856": "過程釋",
    "4857": "過粗",
    "4858": "過細",
    "4859": "過萃",
    "4860": "過重",
    "4861": "過量",
    "4862": "過長",
    "4863": "過長則",
    "4864": "過頭",
    "4865": "過高",
    "4866": "道",
    "4867": "道菜",
    "4868": "達",
    "4869": "達到",
    "4870": "適",
    "4871": "適中",
    "4872": "適合",
    "4873": "適合喜",
    "4874": "適合帶",
    "4875": "適合手",
    "4876": "適合腸",
    "4877": "適合辦",
    "4878": "適合酸感",
    "4879": "適度",
    "4880": "適應",
    "4881": "適用",
    "4882": "適當",
    "4883": "適量",
    "4884": "遲",
    "4885": "選",
    "4886": "選擇",
    "4887": "選擇將",
    "4888": "選日",
    "4889": "選濾紙",
    "4890": "選用",
    "4891": "選豆",
    "4892": "選購",
    "4893": "選項",
    "4894": "選風味",
    "4895": "避免",
    "4896": "避開後段",
    "4897": "邀請",
    "4898": "還",
    "4899": "還一邊",
    "4900": "還不太穩",
    "4901": "還不會",
    "4902": "還來",
    "4903": "還將",
    "4904": "還差",
    "4905": "還搭載",
    "4906": "還是",
    "4907": "還會",
    "4908": "還有",
    "4909": "還能",
    "4910": "還要",
    "4911": "邊的",
    "4912": "邊緣",
    "4913": "邏輯",
    "4914": "那",
    "4915": "那些",
    "4916": "那支",
    "4917": "那磨",
    "4918": "那要",
    "4919": "那麼",
    "4920": "郊遊",
    "4921": "部分",
    "4922": "部落",
    "4923": "都",
    "4924": "都將",
    "4925": "都行",
    "4926": "配件",
    "4927": "配出",
    "4928": "配合",
    "4929": "配方",
    "4930": "配有",
    "4931": "配比",
    "4932": "配法",
    "4933": "酒漬",
    "4934": "酒精",
    "4935": "酒香",
    "4936": "酥脆",
    "4937": "酸",
    "4938": "酸值",
    "4939": "酸到",
    "4940": "酸味",
    "4941": "酸度",
    "4942": "酸性",
    "4943": "酸感",
    "4944": "酸甜",
    "4945": "酸苦",
    "4946": "酸質",
    "4947": "酸香",
    "4948": "酸鹼",
    "4949": "醇厚",
    "4950": "醇度",
    "4951": "醋栗",
    "4952": "醒腦",
    "4953": "醫學院",
    "4954": "釀",
    "4955": "釀造",
    "4956": "釀酒師",
    "4957": "釋",
    "4958": "釋出",
    "4959": "釋放",
    "4960": "釋放裡面",
    "4961": "釋放較",
    "4962": "釋放香氣",
    "4963": "重",
    "4964": "重力",
    "4965": "重在",
    "4966": "重塑",
    "4967": "重影",
    "4968": "重拳",
    "4969": "重新",
    "4970": "重現",
    "4971": "重要",
    "4972": "重要性",
    "4973": "重視",
    "4974": "重量",
    "4975": "重金",
    "4976": "重點",
    "4977": "量",
    "4978": "量匙",
    "4979": "量器",
    "4980": "量杯",
    "4981": "量測",
    "4982": "量足夠",
    "4983": "量身",
    "4984": "金",
    "4985": "金屬",
    "4986": "金屬壺",
    "4987": "金標準",
    "4988": "金澤式",
    "4989": "金黃色",
    "4990": "針對",
    "4991": "針由內",
    "4992": "針筒",
    "4993": "鈉",
    "4994": "鈣",
    "4995": "鉤",
    "4996": "鉤子",
    "4997": "銅",
    "4998": "銅壺",
    "4999": "銅或",
    "5000": "銷售",
    "5001": "鋁",
    "5002": "鋪",
    "5003": "鋸齒",
    "5004": "鋼",
    "5005": "鋼化",
    "5006": "錄下",
    "5007": "錐",
    "5008": "錐形",
    "5009": "錢",
    "5010": "錯",
    "5011": "錯且",
    "5012": "錯率",
    "5013": "錯誤",
    "5014": "鍵",
    "5015": "鎂",
    "5016": "鏽",
    "5017": "鐘",
    "5018": "鐘再",
    "5019": "鐘後再",
    "5020": "鐘秒",
    "5021": "鐵",
    "5022": "長",
    "5023": "門學問",
    "5024": "門設計",
    "5025": "閉時",
    "5026": "開",
    "5027": "開來",
    "5028": "開啟",
    "5029": "開始",
    "5030": "開始系",
    "5031": "開封",
    "5032": "開時",
    "5033": "開水",
    "5034": "開濾杯",
    "5035": "開關",
    "5036": "開階段",
    "5037": "間",
    "5038": "間斷",
    "5039": "間歇性",
    "5040": "閥門",
    "5041": "閥門關",
    "5042": "閱數",
    "5043": "閱讀",
    "5044": "閱讀量",
    "5045": "關",
    "5046": "關於",
    "5047": "關於悶",
    "5048": "關於產區",
    "5049": "關於風味",
    "5050": "關注",
    "5051": "關鍵",
    "5052": "關閉",
    "5053": "防止",
    "5054": "防水",
    "5055": "阻力",
    "5056": "阻塞",
    "5057": "阻礙",
    "5058": "阿拉比",
    "5059": "附",
    "5060": "降低",
    "5061": "降低成本",
    "5062": "降溫",
    "5063": "降至",
    "5064": "限制",
    "5065": "限度",
    "5066": "除",
    "5067": "除了",
    "5068": "除掉",
    "5069": "除此之外",
    "5070": "除濾器",
    "5071": "除非",
    "5072": "陰涼",
    "5073": "陶瓷",
    "5074": "陽春",
    "5075": "階段",
    "5076": "隔",
    "5077": "隔熱",
    "5078": "隔開",
    "5079": "隔間",
    "5080": "隔離",
    "5081": "隨",
    "5082": "隨地",
    "5083": "隨後將",
    "5084": "隨後透過",
    "5085": "隨心",
    "5086": "隨手",
    "5087": "隨時",
    "5088": "隨溫度",
    "5089": "隨著",
    "5090": "隨身",
    "5091": "隱形",
    "5092": "隱藏",
    "5093": "隱身",
    "5094": "雀躍的",
    "5095": "雅",
    "5096": "集中",
    "5097": "集粉",
    "5098": "雖",
    "5099": "雖然",
    "5100": "雖然會",
    "5101": "雖說",
    "5102": "雙杯",
    "5103": "雙軌",
    "5104": "雙軸承",
    "5105": "雙重",
    "5106": "雜",
    "5107": "雜但",
    "5108": "雜味",
    "5109": "雜多變",
    "5110": "雜度",
    "5111": "雜的",
    "5112": "雜質",
    "5113": "離",
    "5114": "離子",
    "5115": "難",
    "5116": "難以",
    "5117": "難度",
    "5118": "難題",
    "5119": "雪菲產區",
    "5120": "零",
    "5121": "雷",
    "5122": "電力",
    "5123": "電動",
    "5124": "電動式",
    "5125": "電子",
    "5126": "電式",
    "5127": "電池",
    "5128": "需",
    "5129": "需動手",
    "5130": "需動腦",
    "5131": "需將",
    "5132": "需標記",
    "5133": "需求",
    "5134": "需注意",
    "5135": "需添",
    "5136": "需用",
    "5137": "需約",
    "5138": "需維持",
    "5139": "需花費",
    "5140": "需要",
    "5141": "需視",
    "5142": "需調",
    "5143": "需長",
    "5144": "震動",
    "5145": "震盪",
    "5146": "露營",
    "5147": "露營者",
    "5148": "靈敏",
    "5149": "靈活",
    "5150": "靈魂",
    "5151": "靜置",
    "5152": "非",
    "5153": "非常",
    "5154": "非洲",
    "5155": "靠",
    "5156": "面向",
    "5157": "面積",
    "5158": "面積少",
    "5159": "革命性",
    "5160": "革新",
    "5161": "響",
    "5162": "頂級",
    "5163": "頂部",
    "5164": "項目",
    "5165": "順位",
    "5166": "順便",
    "5167": "順口",
    "5168": "順序",
    "5169": "順手",
    "5170": "順時",
    "5171": "順時針",
    "5172": "順着",
    "5173": "預備",
    "5174": "預先",
    "5175": "預定",
    "5176": "預浸",
    "5177": "預濕濾紙",
    "5178": "預熱",
    "5179": "預熱後記",
    "5180": "預熱法",
    "5181": "預熱濾杯",
    "5182": "預熱用",
    "5183": "預熱過",
    "5184": "預留",
    "5185": "預磨",
    "5186": "預算",
    "5187": "預算來",
    "5188": "預計",
    "5189": "預計將",
    "5190": "預設",
    "5191": "頗",
    "5192": "領域",
    "5193": "頸",
    "5194": "頻道",
    "5195": "顆粒",
    "5196": "顆粒會",
    "5197": "顆粒過",
    "5198": "額外",
    "5199": "顏色",
    "5200": "願意",
    "5201": "類",
    "5202": "類似",
    "5203": "類似細",
    "5204": "類型",
    "5205": "顧名",
    "5206": "顧問",
    "5207": "顯",
    "5208": "顯前",
    "5209": "顯示",
    "5210": "顯著",
    "5211": "風",
    "5212": "風味",
    "5213": "風味並",
    "5214": "風味來",
    "5215": "風味個",
    "5216": "風味則",
    "5217": "風味層",
    "5218": "風味時",
    "5219": "風味會",
    "5220": "風味物",
    "5221": "風味物質",
    "5222": "風味絕",
    "5223": "風味能",
    "5224": "風味表現",
    "5225": "風味釋",
    "5226": "風土",
    "5227": "風壺",
    "5228": "風式",
    "5229": "風情",
    "5230": "風暴",
    "5231": "風格",
    "5232": "風潮",
    "5233": "風貌",
    "5234": "風險",
    "5235": "風靡",
    "5236": "飄起",
    "5237": "飄起並",
    "5238": "飛馬",
    "5239": "食品",
    "5240": "食材",
    "5241": "食材來",
    "5242": "食用",
    "5243": "飲",
    "5244": "飲品",
    "5245": "飲料",
    "5246": "飲用",
    "5247": "飲用者",
    "5248": "飽",
    "5249": "飽滿",
    "5250": "餅",
    "5251": "餅狀",
    "5252": "餐館",
    "5253": "餘韻",
    "5254": "館",
    "5255": "館到",
    "5256": "首先",
    "5257": "首創",
    "5258": "首次",
    "5259": "首要",
    "5260": "首選",
    "5261": "香",
    "5262": "香味",
    "5263": "香料",
    "5264": "香氣",
    "5265": "香氣會",
    "5266": "香港",
    "5267": "香精",
    "5268": "香郁",
    "5269": "香醇",
    "5270": "香風味",
    "5271": "香香",
    "5272": "馥郁",
    "5273": "馬",
    "5274": "騰後",
    "5275": "驅動",
    "5276": "驗",
    "5277": "驗證",
    "5278": "驚",
    "5279": "驚人",
    "5280": "驚喜",
    "5281": "驚訝",
    "5282": "驟",
    "5283": "驟中",
    "5284": "驟教學",
    "5285": "驟稱",
    "5286": "驟講",
    "5287": "體",
    "5288": "體乾淨",
    "5289": "體積",
    "5290": "體驗",
    "5291": "高",
    "5292": "高低",
    "5293": "高價",
    "5294": "高品質",
    "5295": "高壓",
    "5296": "高展",
    "5297": "高度",
    "5298": "高手",
    "5299": "高效",
    "5300": "高效率",
    "5301": "高昂",
    "5302": "高時",
    "5303": "高深",
    "5304": "高溫",
    "5305": "高濃度",
    "5306": "高貴",
    "5307": "高超",
    "5308": "高階磨",
    "5309": "鬆",
    "5310": "魅力",
    "5311": "魔咒",
    "5312": "鮮",
    "5313": "鮮出",
    "5314": "鮮度",
    "5315": "鮮明",
    "5316": "鹼度",
    "5317": "鹽",
    "5318": "麵",
    "5319": "麻煩",
    "5320": "麻纖",
    "5321": "黃",
    "5322": "黑",
    "5323": "黑箱",
    "5324": "點",
    "5325": "點到",
    "5326": "點及",
    "5327": "點我",
    "5328": "點水式",
    "5329": "點滴",
    "5330": "點滴式",
    "5331": "點滴法",
    "5332": "點苦",
    "5333": "點開始",
    "5334": "點點",
    "5335": "鼓勵",
    "5336": "齊放",
    "5337": "齊杯",
    "5338": "️",
    "5339": "！",
    "5340": "％",
    "5341": "＆",
    "5342": "（",
    "5343": "）",
    "5344": "＋",
    "5345": "，",
    "5346": "－",
    "5347": "／",
    "5348": "６",
    "5349": "：",
    "5350": "；",
    "5351": "＝",
    "5352": "＞",
    "5353": "？",
    "5354": "｜",
    "5355": "～",
    "5356": "📋",
    "5357": "🔎",
    "0": "<UNK>"
  }
}