{
  "word_to_id": {
    "\t": 1,
    "\n": 2,
    " ": 3,
    "&": 4,
    "(": 5,
    ")": 6,
    "*": 7,
    "-": 8,
    ".": 9,
    "/": 10,
    "0": 11,
    "00": 12,
    "1": 13,
    "1.5": 14,
    "10": 15,
    "100": 16,
    "1000": 17,
    "12": 18,
    "13": 19,
    "14": 20,
    "15": 21,
    "16": 22,
    "160": 23,
    "17": 24,
    "18": 25,
    "1Zpresso": 26,
    "2": 27,
    "2.5": 28,
    "20": 29,
    "2000": 30,
    "2007": 31,
    "2024": 32,
    "2025": 33,
    "20g": 34,
    "24": 35,
    "25": 36,
    "3": 37,
    "30": 38,
    "300ml": 39,
    "4": 40,
    "40": 41,
    "40%": 42,
    "45": 43,
    "5": 44,
    "50": 45,
    "6": 46,
    "60": 47,
    "60%": 48,
    "60ml": 49,
    "7": 50,
    "8": 51,
    "80": 52,
    "85": 53,
    "88": 54,
    "90": 55,
    "92": 56,
    "93": 57,
    "95": 58,
    "96": 59,
    ":": 60,
    "A": 61,
    "AeroPress": 62,
    "Aeropress": 63,
    "B": 64,
    "Brew": 65,
    "C": 66,
    "Capsule": 67,
    "Coffee": 68,
    "Cold": 69,
    "Drip": 70,
    "Espresso": 71,
    "FAQ": 72,
    "Filter": 73,
    "French": 74,
    "FrenchPress": 75,
    "Hario": 76,
    "Hoffmann": 77,
    "Ice": 78,
    "James": 79,
    "Jimseven": 80,
    "KO": 81,
    "Machine": 82,
    "Moka": 83,
    "NO": 84,
    "Pot": 85,
    "Press": 86,
    "SCA": 87,
    "Siphon": 88,
    "TDS": 89,
    "V60": 90,
    "YouTube": 91,
    "brew": 92,
    "brewing": 93,
    "c": 94,
    "coffee": 95,
    "method": 96,
    "~": 97,
    "°": 98,
    "̅": 99,
    "​": 100,
    "–": 101,
    "—": 102,
    "℃": 103,
    "→": 104,
    "◎": 105,
    "★": 106,
    "☆": 107,
    "、": 108,
    "。": 109,
    "「": 110,
    "」": 111,
    "【": 112,
    "】": 113,
    "の": 114,
    "一": 115,
    "一下": 116,
    "一些": 117,
    "一來": 118,
    "一個": 119,
    "一分": 120,
    "一包": 121,
    "一台": 122,
    "一定": 123,
    "一支": 124,
    "一杯": 125,
    "一樣": 126,
    "一次": 127,
    "一款": 128,
    "一步": 129,
    "一段": 130,
    "一注": 131,
    "一種": 132,
    "一致": 133,
    "一致性": 134,
    "一般": 135,
    "一起": 136,
    "一道": 137,
    "一開始": 138,
    "一點": 139,
    "七": 140,
    "三": 141,
    "三大": 142,
    "三次": 143,
    "三段式": 144,
    "上": 145,
    "上下": 146,
    "上升": 147,
    "上壺": 148,
    "上層": 149,
    "下": 150,
    "下壺": 151,
    "下層": 152,
    "下方": 153,
    "下次": 154,
    "下降": 155,
    "下面": 156,
    "不": 157,
    "不佳": 158,
    "不僅": 159,
    "不再": 160,
    "不出": 161,
    "不可": 162,
    "不可或缺": 163,
    "不同": 164,
    "不均": 165,
    "不失": 166,
    "不如": 167,
    "不妨": 168,
    "不少": 169,
    "不建議": 170,
    "不斷": 171,
    "不易": 172,
    "不是": 173,
    "不會": 174,
    "不用": 175,
    "不知": 176,
    "不要": 177,
    "不論": 178,
    "不足": 179,
    "不過": 180,
    "不錯": 181,
    "不間": 182,
    "不需": 183,
    "且": 184,
    "世界": 185,
    "並": 186,
    "並且": 187,
    "並在": 188,
    "並均": 189,
    "並將": 190,
    "並減": 191,
    "並非": 192,
    "中": 193,
    "中南美洲": 194,
    "中央": 195,
    "中後段": 196,
    "中心": 197,
    "中段": 198,
    "中焙": 199,
    "中等": 200,
    "中細": 201,
    "中間": 202,
    "主要": 203,
    "之": 204,
    "之一": 205,
    "之前": 206,
    "之外": 207,
    "之間": 208,
    "也": 209,
    "乾淨": 210,
    "乾燥": 211,
    "了": 212,
    "了解": 213,
    "事先": 214,
    "事實": 215,
    "二": 216,
    "二氧化碳": 217,
    "五": 218,
    "亦": 219,
    "享受": 220,
    "享用": 221,
    "人": 222,
    "人來": 223,
    "什麼": 224,
    "今天": 225,
    "介紹": 226,
    "他": 227,
    "代表": 228,
    "令人": 229,
    "以": 230,
    "以上": 231,
    "以下": 232,
    "以免": 233,
    "以及": 234,
    "以外": 235,
    "以點": 236,
    "任何": 237,
    "任何人": 238,
    "似": 239,
    "但": 240,
    "但是": 241,
    "佈": 242,
    "低": 243,
    "低溫": 244,
    "作": 245,
    "作出": 246,
    "作為": 247,
    "作用": 248,
    "你": 249,
    "使": 250,
    "使用": 251,
    "使用者": 252,
    "來": 253,
    "來源": 254,
    "例如": 255,
    "供": 256,
    "依": 257,
    "依據": 258,
    "依照": 259,
    "便": 260,
    "便利性": 261,
    "便宜": 262,
    "係": 263,
    "保": 264,
    "保存": 265,
    "保持": 266,
    "保水": 267,
    "保溫": 268,
    "保留": 269,
    "個": 270,
    "倍": 271,
    "倒": 272,
    "倒入": 273,
    "倒掉": 274,
    "倒水": 275,
    "值得": 276,
    "偏": 277,
    "偏好": 278,
    "偏細": 279,
    "偏酸": 280,
    "做": 281,
    "做出": 282,
    "做法": 283,
    "停止": 284,
    "健康": 285,
    "傳統": 286,
    "傾斜": 287,
    "僅需": 288,
    "像": 289,
    "像是": 290,
    "價格": 291,
    "儀式": 292,
    "儘": 293,
    "優勢": 294,
    "優缺點": 295,
    "優質": 296,
    "優點": 297,
    "元": 298,
    "充分": 299,
    "充滿": 300,
    "先": 301,
    "先將": 302,
    "先用熱": 303,
    "克": 304,
    "克杯": 305,
    "克熱水": 306,
    "入": 307,
    "入坑": 308,
    "入門": 309,
    "內": 310,
    "內容": 311,
    "全": 312,
    "全球": 313,
    "全部": 314,
    "兩個": 315,
    "兩倍": 316,
    "兩次": 317,
    "兩種": 318,
    "兩者": 319,
    "公升": 320,
    "公室": 321,
    "六": 322,
    "六種": 323,
    "共": 324,
    "其": 325,
    "其中": 326,
    "其他": 327,
    "其實": 328,
    "具備": 329,
    "具有": 330,
    "具體": 331,
    "兼具": 332,
    "再": 333,
    "再來": 334,
    "再次": 335,
    "再繞": 336,
    "冠": 337,
    "冰": 338,
    "冰水": 339,
    "冰滴": 340,
    "冷": 341,
    "冷水": 342,
    "冷萃": 343,
    "冷藏": 344,
    "凸顯": 345,
    "出": 346,
    "出來": 347,
    "出口": 348,
    "出屬": 349,
    "出水量": 350,
    "出現": 351,
    "出類": 352,
    "出風味": 353,
    "分": 354,
    "分享": 355,
    "分子": 356,
    "分成": 357,
    "分明": 358,
    "分析": 359,
    "分次": 360,
    "分為": 361,
    "分鐘": 362,
    "分離": 363,
    "初學者": 364,
    "判斷": 365,
    "別": 366,
    "利用": 367,
    "到": 368,
    "到底": 369,
    "刺激": 370,
    "刻度": 371,
    "刻意": 372,
    "則": 373,
    "則會": 374,
    "則能": 375,
    "前": 376,
    "前段": 377,
    "剛": 378,
    "剛好": 379,
    "剩下": 380,
    "創造": 381,
    "功能": 382,
    "加": 383,
    "加上": 384,
    "加入": 385,
    "加壓": 386,
    "加水": 387,
    "加熱": 388,
    "加熱產生": 389,
    "加速": 390,
    "助您": 391,
    "動作": 392,
    "勻": 393,
    "勻度": 394,
    "包": 395,
    "包含": 396,
    "包括": 397,
    "包裝": 398,
    "化": 399,
    "化合物": 400,
    "化學": 401,
    "區別": 402,
    "區域": 403,
    "十分": 404,
    "十大": 405,
    "卡": 406,
    "卡布": 407,
    "即": 408,
    "即可": 409,
    "卻": 410,
    "厚實": 411,
    "厚度": 412,
    "厚重": 413,
    "原則": 414,
    "原味": 415,
    "原始": 416,
    "原料": 417,
    "原有": 418,
    "原理": 419,
    "去": 420,
    "去除": 421,
    "參數": 422,
    "參考": 423,
    "又": 424,
    "及": 425,
    "友善": 426,
    "反之": 427,
    "取代": 428,
    "取決": 429,
    "受保護": 430,
    "受到": 431,
    "受熱": 432,
    "口味": 433,
    "口徑": 434,
    "口感": 435,
    "另": 436,
    "另外": 437,
    "只": 438,
    "只是": 439,
    "只能": 440,
    "只要": 441,
    "可": 442,
    "可以": 443,
    "可控性": 444,
    "可用": 445,
    "可能": 446,
    "可選": 447,
    "台灣": 448,
    "各種": 449,
    "各自": 450,
    "合用": 451,
    "合適": 452,
    "同": 453,
    "同一": 454,
    "同時": 455,
    "同樣": 456,
    "向": 457,
    "吧": 458,
    "含量": 459,
    "吸回": 460,
    "吸收": 461,
    "吸水": 462,
    "呈": 463,
    "呈現": 464,
    "告訴": 465,
    "呢": 466,
    "味": 467,
    "味道": 468,
    "和": 469,
    "咖啡": 470,
    "咖啡因": 471,
    "咖啡店": 472,
    "咖啡杯": 473,
    "咖啡粉": 474,
    "咖啡豆": 475,
    "品嚐": 476,
    "品牌": 477,
    "品種": 478,
    "品質": 479,
    "品鑑": 480,
    "品飲": 481,
    "哈本": 482,
    "哪": 483,
    "哪些": 484,
    "商業級": 485,
    "問題": 486,
    "啤酒": 487,
    "喔": 488,
    "喜": 489,
    "喜好": 490,
    "喜愛的": 491,
    "喜歡": 492,
    "喝": 493,
    "喝一杯": 494,
    "喝咖啡": 495,
    "喝法": 496,
    "喝起": 497,
    "單品": 498,
    "單純": 499,
    "嗎": 500,
    "嘗試": 501,
    "器具": 502,
    "器材": 503,
    "囉": 504,
    "四": 505,
    "四六": 506,
    "回": 507,
    "回來": 508,
    "回到": 509,
    "因": 510,
    "因此": 511,
    "因為": 512,
    "因素": 513,
    "因而": 514,
    "固定": 515,
    "圈": 516,
    "圓心": 517,
    "圓潤": 518,
    "土耳其": 519,
    "在": 520,
    "在家": 521,
    "地": 522,
    "地將": 523,
    "地方": 524,
    "均": 525,
    "均勻": 526,
    "均衡": 527,
    "垂直": 528,
    "基底": 529,
    "基本": 530,
    "基本上": 531,
    "基礎": 532,
    "堅果": 533,
    "塊": 534,
    "塌陷": 535,
    "塑膠": 536,
    "增加": 537,
    "增添": 538,
    "壁": 539,
    "壓力": 540,
    "壓壺": 541,
    "壺": 542,
    "壺中": 543,
    "壺嘴": 544,
    "壺或": 545,
    "壺的": 546,
    "壺身": 547,
    "夏季": 548,
    "外出": 549,
    "外層": 550,
    "外畫": 551,
    "外繞": 552,
    "多": 553,
    "多少": 554,
    "多樣": 555,
    "多次": 556,
    "多段": 557,
    "多種": 558,
    "多變": 559,
    "大": 560,
    "大公": 561,
    "大分子": 562,
    "大利": 563,
    "大多": 564,
    "大家": 565,
    "大小": 566,
    "大幅": 567,
    "大約": 568,
    "大部分": 569,
    "大量": 570,
    "太": 571,
    "太久": 572,
    "太淡": 573,
    "太濃": 574,
    "太粗": 575,
    "太細": 576,
    "太苦": 577,
    "太酸": 578,
    "太重": 579,
    "失敗": 580,
    "奇諾": 581,
    "好": 582,
    "好喝": 583,
    "好處": 584,
    "如": 585,
    "如下": 586,
    "如何": 587,
    "如果": 588,
    "如此": 589,
    "孔洞": 590,
    "字形": 591,
    "學習": 592,
    "它": 593,
    "它們": 594,
    "完": 595,
    "完全": 596,
    "完成": 597,
    "完整": 598,
    "完畢": 599,
    "完美": 600,
    "定性": 601,
    "定期": 602,
    "家中": 603,
    "家庭": 604,
    "容器": 605,
    "容易": 606,
    "容量": 607,
    "密度": 608,
    "實": 609,
    "實惠": 610,
    "實用": 611,
    "實踐": 612,
    "實際": 613,
    "實驗": 614,
    "將": 615,
    "將介紹": 616,
    "將影響": 617,
    "將水": 618,
    "將濾杯": 619,
    "將濾紙": 620,
    "將熱水": 621,
    "將粉": 622,
    "將裝": 623,
    "專屬": 624,
    "專業": 625,
    "專為": 626,
    "專用": 627,
    "對": 628,
    "對象": 629,
    "導致": 630,
    "小": 631,
    "小巧": 632,
    "小時": 633,
    "少": 634,
    "少量": 635,
    "尤其": 636,
    "就": 637,
    "就是": 638,
    "就會": 639,
    "尺寸": 640,
    "尾韻": 641,
    "局部": 642,
    "居家": 643,
    "展現": 644,
    "層": 645,
    "層次": 646,
    "屬": 647,
    "工作": 648,
    "工具": 649,
    "左右": 650,
    "巧克力": 651,
    "差": 652,
    "差異": 653,
    "已": 654,
    "已經": 655,
    "市售": 656,
    "市面上": 657,
    "希望": 658,
    "師": 659,
    "帶": 660,
    "帶來": 661,
    "帶出": 662,
    "帶有": 663,
    "常用": 664,
    "常見": 665,
    "幫": 666,
    "幫助": 667,
    "干擾": 668,
    "平均": 669,
    "平坦": 670,
    "平整": 671,
    "平整度": 672,
    "平衡": 673,
    "年": 674,
    "幾下": 675,
    "幾乎": 676,
    "幾個": 677,
    "幾種": 678,
    "床": 679,
    "底部": 680,
    "度": 681,
    "度之間": 682,
    "度越": 683,
    "延伸": 684,
    "延長": 685,
    "建立": 686,
    "建議": 687,
    "式": 688,
    "強烈": 689,
    "形成": 690,
    "形濾杯": 691,
    "形狀": 692,
    "影片": 693,
    "影響": 694,
    "影響力": 695,
    "待": 696,
    "很": 697,
    "很多": 698,
    "很大": 699,
    "後": 700,
    "得": 701,
    "得到": 702,
    "從": 703,
    "復": 704,
    "微小": 705,
    "微調": 706,
    "徹底": 707,
    "心情": 708,
    "必備": 709,
    "必須": 710,
    "忙碌": 711,
    "快": 712,
    "快速": 713,
    "怎麼": 714,
    "怎麼樣": 715,
    "性": 716,
    "悠久": 717,
    "您": 718,
    "悶蒸": 719,
    "情況": 720,
    "想": 721,
    "想要": 722,
    "愛": 723,
    "愛好者": 724,
    "愛樂壓": 725,
    "感": 726,
    "感受": 727,
    "感官": 728,
    "感覺": 729,
    "慢慢": 730,
    "慢速": 731,
    "懂": 732,
    "應該": 733,
    "成": 734,
    "成分": 735,
    "成本": 736,
    "成為": 737,
    "我": 738,
    "我們": 739,
    "或": 740,
    "或是": 741,
    "或者": 742,
    "戶外": 743,
    "所": 744,
    "所以": 745,
    "所有": 746,
    "手": 747,
    "手作": 748,
    "手動": 749,
    "手搖磨": 750,
    "手沖": 751,
    "手法": 752,
    "手衝": 753,
    "才": 754,
    "才能": 755,
    "打造": 756,
    "打開": 757,
    "找到": 758,
    "技巧": 759,
    "技法": 760,
    "技術": 761,
    "把": 762,
    "抓": 763,
    "拆解": 764,
    "拉長": 765,
    "拌": 766,
    "拿": 767,
    "拿到": 768,
    "持續": 769,
    "指": 770,
    "指南": 771,
    "按": 772,
    "挑": 773,
    "挑戰": 774,
    "挑選": 775,
    "掉": 776,
    "掌控": 777,
    "掌握": 778,
    "排出": 779,
    "排除": 780,
    "採用": 781,
    "接下": 782,
    "接合": 783,
    "接著": 784,
    "接觸": 785,
    "接近": 786,
    "控制": 787,
    "推出": 788,
    "推薦": 789,
    "推過": 790,
    "描述": 791,
    "提供": 792,
    "提升": 793,
    "提取": 794,
    "提高": 795,
    "搖晃": 796,
    "搭配": 797,
    "摩卡": 798,
    "擁有": 799,
    "操作": 800,
    "擔心": 801,
    "擴散": 802,
    "擾動": 803,
    "攜帶": 804,
    "攝氏": 805,
    "攪": 806,
    "攪拌": 807,
    "收尾": 808,
    "改以": 809,
    "改用": 810,
    "改變": 811,
    "放": 812,
    "放上": 813,
    "放入": 814,
    "放出": 815,
    "放在": 816,
    "放大": 817,
    "放慢": 818,
    "放置": 819,
    "效應": 820,
    "效果": 821,
    "效率": 822,
    "敘述": 823,
    "教": 824,
    "教學": 825,
    "整個": 826,
    "整理": 827,
    "整體": 828,
    "數位": 829,
    "數值": 830,
    "數據": 831,
    "文化": 832,
    "文章": 833,
    "斯塔": 834,
    "新": 835,
    "新手": 836,
    "新鮮": 837,
    "斷": 838,
    "斷水": 839,
    "方便": 840,
    "方向": 841,
    "方式": 842,
    "方案": 843,
    "方法": 844,
    "於": 845,
    "旅程": 846,
    "旅行": 847,
    "日常": 848,
    "日曬": 849,
    "日期": 850,
    "日本": 851,
    "早晨": 852,
    "明亮": 853,
    "明顯": 854,
    "是": 855,
    "是否": 856,
    "是將": 857,
    "時": 858,
    "時候": 859,
    "時光": 860,
    "時會": 861,
    "時機": 862,
    "時要": 863,
    "時長": 864,
    "時間": 865,
    "更": 866,
    "更加": 867,
    "更多": 868,
    "更好": 869,
    "更是": 870,
    "更能": 871,
    "最": 872,
    "最佳": 873,
    "最先": 874,
    "最大": 875,
    "最好": 876,
    "最小": 877,
    "最常見": 878,
    "最新": 879,
    "最終": 880,
    "最近": 881,
    "最高": 882,
    "會": 883,
    "會導致": 884,
    "會帶": 885,
    "會有": 886,
    "月": 887,
    "有": 888,
    "有些": 889,
    "有人": 890,
    "有什麼": 891,
    "有何": 892,
    "有助": 893,
    "有所": 894,
    "有所不同": 895,
    "有效": 896,
    "有興趣": 897,
    "有點": 898,
    "朋友": 899,
    "服貼": 900,
    "未": 901,
    "本文": 902,
    "本身": 903,
    "材質": 904,
    "杯": 905,
    "杯中": 906,
    "杯口": 907,
    "杯子": 908,
    "杯底": 909,
    "杯測": 910,
    "林桑": 911,
    "果酸": 912,
    "柔和": 913,
    "柱塞": 914,
    "核心": 915,
    "根據": 916,
    "根據個": 917,
    "桌上": 918,
    "梯形": 919,
    "棒": 920,
    "極其": 921,
    "極客": 922,
    "極短": 923,
    "極細": 924,
    "極致": 925,
    "極高": 926,
    "概念": 927,
    "榨出": 928,
    "槽": 929,
    "樂趣": 930,
    "標準": 931,
    "標示": 932,
    "機": 933,
    "機器": 934,
    "機型": 935,
    "機時": 936,
    "次": 937,
    "款式": 938,
    "歡迎": 939,
    "正是": 940,
    "此": 941,
    "此外": 942,
    "此時": 943,
    "此法": 944,
    "步驟": 945,
    "殘留": 946,
    "殘粉": 947,
    "段": 948,
    "每": 949,
    "每一種": 950,
    "每個": 951,
    "每杯": 952,
    "每次": 953,
    "每種": 954,
    "比": 955,
    "比亞": 956,
    "比例": 957,
    "比起": 958,
    "比較": 959,
    "氣味": 960,
    "氣體": 961,
    "水": 962,
    "水中": 963,
    "水位": 964,
    "水分": 965,
    "水壺": 966,
    "水柱": 967,
    "水比": 968,
    "水法": 969,
    "水洗": 970,
    "水流": 971,
    "水浸": 972,
    "水溫": 973,
    "水滴": 974,
    "水質": 975,
    "水量": 976,
    "水面": 977,
    "決定": 978,
    "沉": 979,
    "沒": 980,
    "沒有": 981,
    "沖": 982,
    "河野": 983,
    "沸水": 984,
    "油脂": 985,
    "法": 986,
    "法壓壺": 987,
    "法式": 988,
    "泡": 989,
    "泡水": 990,
    "泡沫": 991,
    "泡法": 992,
    "泡者": 993,
    "波": 994,
    "波浪": 995,
    "注": 996,
    "注入": 997,
    "注意": 998,
    "注水": 999,
    "注水方式": 1000,
    "流下": 1001,
    "流出": 1002,
    "流派": 1003,
    "流程": 1004,
    "流行": 1005,
    "流速": 1006,
    "浪費": 1007,
    "浸泡": 1008,
    "浸潤": 1009,
    "浸濕": 1010,
    "浸濕濾紙": 1011,
    "消費者": 1012,
    "液": 1013,
    "液中": 1014,
    "液以": 1015,
    "液會": 1016,
    "液體": 1017,
    "淡": 1018,
    "淡薄": 1019,
    "深": 1020,
    "深入": 1021,
    "深焙": 1022,
    "混": 1023,
    "混合": 1024,
    "混合式": 1025,
    "淺培": 1026,
    "淺焙": 1027,
    "添加": 1028,
    "清晰": 1029,
    "清楚": 1030,
    "清水": 1031,
    "清洗": 1032,
    "清淡": 1033,
    "清潔": 1034,
    "清爽": 1035,
    "減少": 1036,
    "渣": 1037,
    "測法": 1038,
    "測試": 1039,
    "測量": 1040,
    "湯匙": 1041,
    "源自": 1042,
    "準備": 1043,
    "準確": 1044,
    "溫": 1045,
    "溫度": 1046,
    "溫度計": 1047,
    "溫柔": 1048,
    "溶": 1049,
    "溶出": 1050,
    "溶解": 1051,
    "滑順": 1052,
    "滲濾": 1053,
    "滲透": 1054,
    "滴": 1055,
    "滴入": 1056,
    "滴出": 1057,
    "滴濾": 1058,
    "滴濾式": 1059,
    "滾": 1060,
    "滿": 1061,
    "漂白": 1062,
    "澆": 1063,
    "澱": 1064,
    "濃": 1065,
    "濃厚": 1066,
    "濃度": 1067,
    "濃淡": 1068,
    "濃烈": 1069,
    "濃縮": 1070,
    "濃縮液": 1071,
    "濃郁": 1072,
    "濕": 1073,
    "濕潤": 1074,
    "濾": 1075,
    "濾器": 1076,
    "濾壓壺": 1077,
    "濾布": 1078,
    "濾掛": 1079,
    "濾掛式": 1080,
    "濾杯": 1081,
    "濾杯裡": 1082,
    "濾水壺": 1083,
    "濾泡式": 1084,
    "濾紙": 1085,
    "濾網": 1086,
    "濾蓋": 1087,
    "火源": 1088,
    "為": 1089,
    "為主": 1090,
    "為何": 1091,
    "烘焙": 1092,
    "烘豆": 1093,
    "無": 1094,
    "無法": 1095,
    "無論": 1096,
    "無需": 1097,
    "焦": 1098,
    "焦糖": 1099,
    "焦苦": 1100,
    "然": 1101,
    "然後將": 1102,
    "然而": 1103,
    "煙": 1104,
    "煮": 1105,
    "煮水": 1106,
    "煮沸": 1107,
    "煮法": 1108,
    "熱": 1109,
    "熱水": 1110,
    "熱水並": 1111,
    "熱的": 1112,
    "熱萃": 1113,
    "熱質": 1114,
    "燻": 1115,
    "爐": 1116,
    "牛奶": 1117,
    "物": 1118,
    "物品": 1119,
    "物理": 1120,
    "物質": 1121,
    "特別": 1122,
    "特性": 1123,
    "特殊": 1124,
    "特色": 1125,
    "特點": 1126,
    "狀": 1127,
    "狀態": 1128,
    "狀況": 1129,
    "獨一無二": 1130,
    "獨家": 1131,
    "獨特": 1132,
    "獨特風味": 1133,
    "獲得": 1134,
    "玩家": 1135,
    "玻璃": 1136,
    "現出": 1137,
    "現磨": 1138,
    "現象": 1139,
    "理想": 1140,
    "理法": 1141,
    "理解": 1142,
    "環保": 1143,
    "環境": 1144,
    "瓶": 1145,
    "甚至": 1146,
    "甜": 1147,
    "甜味": 1148,
    "甜感": 1149,
    "生活": 1150,
    "產區": 1151,
    "產品": 1152,
    "產地": 1153,
    "產生": 1154,
    "用": 1155,
    "用來": 1156,
    "用途": 1157,
    "由": 1158,
    "留下": 1159,
    "留意": 1160,
    "畫圈": 1161,
    "畫圓": 1162,
    "異味": 1163,
    "當": 1164,
    "當作": 1165,
    "當我們": 1166,
    "當然": 1167,
    "發展": 1168,
    "發明": 1169,
    "發現": 1170,
    "發酵": 1171,
    "白色": 1172,
    "的": 1173,
    "皆": 1174,
    "盛裝": 1175,
    "盡": 1176,
    "目前": 1177,
    "目的": 1178,
    "直到": 1179,
    "直接": 1180,
    "直觀": 1181,
    "相": 1182,
    "相似": 1183,
    "相信": 1184,
    "相反": 1185,
    "相同": 1186,
    "相對": 1187,
    "相比": 1188,
    "相當": 1189,
    "相較": 1190,
    "看": 1191,
    "看到": 1192,
    "看看": 1193,
    "真正": 1194,
    "真空": 1195,
    "瞬間": 1196,
    "知識": 1197,
    "知道": 1198,
    "短": 1199,
    "砂糖": 1200,
    "研磨": 1201,
    "砸": 1202,
    "硬度": 1203,
    "硬水": 1204,
    "確保": 1205,
    "確定": 1206,
    "磨": 1207,
    "磨得": 1208,
    "磨成": 1209,
    "磨豆": 1210,
    "磨豆機": 1211,
    "礦物質": 1212,
    "科學": 1213,
    "秒": 1214,
    "秒左右": 1215,
    "秤": 1216,
    "移開": 1217,
    "移除": 1218,
    "稀釋": 1219,
    "程": 1220,
    "程度": 1221,
    "稍微": 1222,
    "種": 1223,
    "種常見": 1224,
    "種類": 1225,
    "稱": 1226,
    "積": 1227,
    "穩": 1228,
    "穩定": 1229,
    "穩定度": 1230,
    "究竟": 1231,
    "空氣": 1232,
    "空間": 1233,
    "空隙": 1234,
    "穿過": 1235,
    "立刻": 1236,
    "笑": 1237,
    "符合": 1238,
    "第": 1239,
    "第一次": 1240,
    "第三": 1241,
    "第二": 1242,
    "第二次": 1243,
    "等": 1244,
    "等到": 1245,
    "等待": 1246,
    "等級": 1247,
    "管": 1248,
    "節奏": 1249,
    "範圍": 1250,
    "篩出": 1251,
    "簡單": 1252,
    "簡易": 1253,
    "簡稱": 1254,
    "粉": 1255,
    "粉層": 1256,
    "粉床": 1257,
    "粉末": 1258,
    "粉水": 1259,
    "粉量": 1260,
    "粕": 1261,
    "粗": 1262,
    "粗細": 1263,
    "精": 1264,
    "精品": 1265,
    "精品咖啡": 1266,
    "精準": 1267,
    "精準度": 1268,
    "精確": 1269,
    "精細": 1270,
    "精華": 1271,
    "約": 1272,
    "純": 1273,
    "純水": 1274,
    "純粹": 1275,
    "紙味": 1276,
    "紙漿": 1277,
    "累積": 1278,
    "細": 1279,
    "細小": 1280,
    "細節": 1281,
    "細粉": 1282,
    "細膩": 1283,
    "組": 1284,
    "組合": 1285,
    "組成": 1286,
    "結合": 1287,
    "結束": 1288,
    "結果": 1289,
    "結構": 1290,
    "絕對": 1291,
    "經典": 1292,
    "經常": 1293,
    "經濟": 1294,
    "經過": 1295,
    "經驗": 1296,
    "維持": 1297,
    "緊實": 1298,
    "緩慢": 1299,
    "緩衝": 1300,
    "練習": 1301,
    "緻": 1302,
    "縮": 1303,
    "總": 1304,
    "總注": 1305,
    "繞圈": 1306,
    "繼續": 1307,
    "續": 1308,
    "纖維": 1309,
    "缺乏": 1310,
    "缺點": 1311,
    "美味": 1312,
    "美好": 1313,
    "美式": 1314,
    "義": 1315,
    "義式": 1316,
    "習慣": 1317,
    "考慮": 1318,
    "考量": 1319,
    "者": 1320,
    "而": 1321,
    "而且": 1322,
    "而定": 1323,
    "而是": 1324,
    "而言": 1325,
    "耐心": 1326,
    "耶加雪菲": 1327,
    "聰明": 1328,
    "胃": 1329,
    "能": 1330,
    "能夠": 1331,
    "膠囊": 1332,
    "膨脹": 1333,
    "自": 1334,
    "自來": 1335,
    "自己": 1336,
    "自然": 1337,
    "自由": 1338,
    "自行": 1339,
    "至": 1340,
    "與": 1341,
    "良好": 1342,
    "花": 1343,
    "花果": 1344,
    "花開": 1345,
    "花香": 1346,
    "芳香": 1347,
    "若": 1348,
    "若想": 1349,
    "苦": 1350,
    "苦味": 1351,
    "苦澀": 1352,
    "茶": 1353,
    "萃取": 1354,
    "萃取率": 1355,
    "落": 1356,
    "著": 1357,
    "蒸氣": 1358,
    "蒸汽": 1359,
    "蓋": 1360,
    "藉此": 1361,
    "藉由": 1362,
    "處": 1363,
    "處理": 1364,
    "虹吸": 1365,
    "虹吸式": 1366,
    "融合": 1367,
    "螺旋": 1368,
    "衣索": 1369,
    "表格": 1370,
    "表現": 1371,
    "表面": 1372,
    "被": 1373,
    "補充": 1374,
    "裝好": 1375,
    "裡的": 1376,
    "裡面": 1377,
    "製": 1378,
    "複": 1379,
    "褐色": 1380,
    "要": 1381,
    "要點": 1382,
    "見": 1383,
    "視為": 1384,
    "親": 1385,
    "覺得": 1386,
    "觀察": 1387,
    "角度": 1388,
    "解救": 1389,
    "解析": 1390,
    "解決": 1391,
    "計時": 1392,
    "計時器": 1393,
    "討論": 1394,
    "訓練": 1395,
    "記住": 1396,
    "記得": 1397,
    "記錄": 1398,
    "設備": 1399,
    "設定": 1400,
    "設計": 1401,
    "許多": 1402,
    "許多人": 1403,
    "註": 1404,
    "試試": 1405,
    "話": 1406,
    "該": 1407,
    "詳細": 1408,
    "認為": 1409,
    "認識": 1410,
    "語言": 1411,
    "說": 1412,
    "說明": 1413,
    "誰": 1414,
    "課": 1415,
    "調": 1416,
    "調整": 1417,
    "調節": 1418,
    "調細": 1419,
    "調配": 1420,
    "請": 1421,
    "講究": 1422,
    "變": 1423,
    "變化": 1424,
    "變因": 1425,
    "變得": 1426,
    "變成": 1427,
    "變數": 1428,
    "變苦": 1429,
    "讓": 1430,
    "谷哲": 1431,
    "豆": 1432,
    "豆子": 1433,
    "豆機": 1434,
    "豆種": 1435,
    "豆粉": 1436,
    "豐富": 1437,
    "負責": 1438,
    "買": 1439,
    "質地": 1440,
    "質量": 1441,
    "購買": 1442,
    "走": 1443,
    "起": 1444,
    "起來": 1445,
    "起始": 1446,
    "超過": 1447,
    "越": 1448,
    "越來": 1449,
    "越濃": 1450,
    "越長": 1451,
    "趣味": 1452,
    "趨勢": 1453,
    "足夠": 1454,
    "跟": 1455,
    "軍": 1456,
    "較": 1457,
    "較少": 1458,
    "較淡": 1459,
    "較長": 1460,
    "輕": 1461,
    "輕拍": 1462,
    "輕輕": 1463,
    "辦": 1464,
    "迅速": 1465,
    "近年": 1466,
    "迫使": 1467,
    "迷人": 1468,
    "追求": 1469,
    "透明": 1470,
    "透過": 1471,
    "逐漸": 1472,
    "這": 1473,
    "這也": 1474,
    "這些": 1475,
    "這個": 1476,
    "這招": 1477,
    "這是": 1478,
    "這樣": 1479,
    "這次": 1480,
    "這種": 1481,
    "這篇": 1482,
    "這能": 1483,
    "這裡": 1484,
    "通常": 1485,
    "通過": 1486,
    "通道": 1487,
    "速度": 1488,
    "造": 1489,
    "造就": 1490,
    "造成": 1491,
    "連續": 1492,
    "進入": 1493,
    "進而": 1494,
    "進行": 1495,
    "遇到": 1496,
    "運動": 1497,
    "運用": 1498,
    "過": 1499,
    "過多": 1500,
    "過度": 1501,
    "過快": 1502,
    "過慢": 1503,
    "過濾": 1504,
    "過濾器": 1505,
    "過濾式": 1506,
    "過短": 1507,
    "過程": 1508,
    "過細": 1509,
    "過長": 1510,
    "達": 1511,
    "達到": 1512,
    "適": 1513,
    "適中": 1514,
    "適合": 1515,
    "適度": 1516,
    "適當": 1517,
    "適量": 1518,
    "選": 1519,
    "選擇": 1520,
    "選用": 1521,
    "選豆": 1522,
    "選購": 1523,
    "避免": 1524,
    "還": 1525,
    "還是": 1526,
    "還有": 1527,
    "還能": 1528,
    "邊緣": 1529,
    "那": 1530,
    "那麼": 1531,
    "部分": 1532,
    "部落": 1533,
    "都": 1534,
    "配方": 1535,
    "酸": 1536,
    "酸值": 1537,
    "酸味": 1538,
    "酸度": 1539,
    "酸感": 1540,
    "酸甜": 1541,
    "酸質": 1542,
    "醇厚": 1543,
    "釀造": 1544,
    "釋": 1545,
    "釋出": 1546,
    "釋放": 1547,
    "重": 1548,
    "重力": 1549,
    "重現": 1550,
    "重要": 1551,
    "重視": 1552,
    "重量": 1553,
    "重點": 1554,
    "量": 1555,
    "量杯": 1556,
    "金": 1557,
    "金屬": 1558,
    "金澤式": 1559,
    "鈣": 1560,
    "鋪": 1561,
    "鋼": 1562,
    "錐": 1563,
    "錐形": 1564,
    "錯誤": 1565,
    "鎂": 1566,
    "鏽": 1567,
    "鐵": 1568,
    "長": 1569,
    "開": 1570,
    "開啟": 1571,
    "開始": 1572,
    "開階段": 1573,
    "間": 1574,
    "閥門": 1575,
    "閱讀": 1576,
    "關於": 1577,
    "關鍵": 1578,
    "阻力": 1579,
    "阿拉比": 1580,
    "降低": 1581,
    "降溫": 1582,
    "除了": 1583,
    "陶瓷": 1584,
    "階段": 1585,
    "隔": 1586,
    "隨地": 1587,
    "隨時": 1588,
    "隨身": 1589,
    "集中": 1590,
    "雖然": 1591,
    "雜": 1592,
    "雜味": 1593,
    "雜質": 1594,
    "離": 1595,
    "離子": 1596,
    "難": 1597,
    "難度": 1598,
    "電動": 1599,
    "電子": 1600,
    "需": 1601,
    "需求": 1602,
    "需注意": 1603,
    "需要": 1604,
    "露營": 1605,
    "靜置": 1606,
    "非常": 1607,
    "非洲": 1608,
    "面積": 1609,
    "革新": 1610,
    "頂部": 1611,
    "順位": 1612,
    "順口": 1613,
    "順時針": 1614,
    "預先": 1615,
    "預熱": 1616,
    "預計": 1617,
    "預設": 1618,
    "顆粒": 1619,
    "類似": 1620,
    "類型": 1621,
    "顯示": 1622,
    "風": 1623,
    "風味": 1624,
    "風味層": 1625,
    "風味物質": 1626,
    "風味表現": 1627,
    "風格": 1628,
    "食材": 1629,
    "飲品": 1630,
    "飲用": 1631,
    "飲用者": 1632,
    "飽": 1633,
    "飽滿": 1634,
    "館": 1635,
    "首先": 1636,
    "首選": 1637,
    "香": 1638,
    "香味": 1639,
    "香氣": 1640,
    "香醇": 1641,
    "馬": 1642,
    "驟": 1643,
    "體積": 1644,
    "體驗": 1645,
    "高": 1646,
    "高低": 1647,
    "高品質": 1648,
    "高壓": 1649,
    "高度": 1650,
    "高溫": 1651,
    "鬆": 1652,
    "魅力": 1653,
    "鮮度": 1654,
    "鹼度": 1655,
    "鹽": 1656,
    "黃": 1657,
    "點我": 1658,
    "點滴": 1659,
    "點滴式": 1660,
    "點滴法": 1661,
    "！": 1662,
    "％": 1663,
    "（": 1664,
    "）": 1665,
    "，": 1666,
    "－": 1667,
    "／": 1668,
    "：": 1669,
    "；": 1670,
    "＞": 1671,
    "？": 1672,
    "｜": 1673,
    "～": 1674,
    "<UNK>": 0
  },
  "id_to_word": {
    "1": "\t",
    "2": "\n",
    "3": " ",
    "4": "&",
    "5": "(",
    "6": ")",
    "7": "*",
    "8": "-",
    "9": ".",
    "10": "/",
    "11": "0",
    "12": "00",
    "13": "1",
    "14": "1.5",
    "15": "10",
    "16": "100",
    "17": "1000",
    "18": "12",
    "19": "13",
    "20": "14",
    "21": "15",
    "22": "16",
    "23": "160",
    "24": "17",
    "25": "18",
    "26": "1Zpresso",
    "27": "2",
    "28": "2.5",
    "29": "20",
    "30": "2000",
    "31": "2007",
    "32": "2024",
    "33": "2025",
    "34": "20g",
    "35": "24",
    "36": "25",
    "37": "3",
    "38": "30",
    "39": "300ml",
    "40": "4",
    "41": "40",
    "42": "40%",
    "43": "45",
    "44": "5",
    "45": "50",
    "46": "6",
    "47": "60",
    "48": "60%",
    "49": "60ml",
    "50": "7",
    "51": "8",
    "52": "80",
    "53": "85",
    "54": "88",
    "55": "90",
    "56": "92",
    "57": "93",
    "58": "95",
    "59": "96",
    "60": ":",
    "61": "A",
    "62": "AeroPress",
    "63": "Aeropress",
    "64": "B",
    "65": "Brew",
    "66": "C",
    "67": "Capsule",
    "68": "Coffee",
    "69": "Cold",
    "70": "Drip",
    "71": "Espresso",
    "72": "FAQ",
    "73": "Filter",
    "74": "French",
    "75": "FrenchPress",
    "76": "Hario",
    "77": "Hoffmann",
    "78": "Ice",
    "79": "James",
    "80": "Jimseven",
    "81": "KO",
    "82": "Machine",
    "83": "Moka",
    "84": "NO",
    "85": "Pot",
    "86": "Press",
    "87": "SCA",
    "88": "Siphon",
    "89": "TDS",
    "90": "V60",
    "91": "YouTube",
    "92": "brew",
    "93": "brewing",
    "94": "c",
    "95": "coffee",
    "96": "method",
    "97": "~",
    "98": "°",
    "99": "̅",
    "100": "​",
    "101": "–",
    "102": "—",
    "103": "℃",
    "104": "→",
    "105": "◎",
    "106": "★",
    "107": "☆",
    "108": "、",
    "109": "。",
    "110": "「",
    "111": "」",
    "112": "【",
    "113": "】",
    "114": "の",
    "115": "一",
    "116": "一下",
    "117": "一些",
    "118": "一來",
    "119": "一個",
    "120": "一分",
    "121": "一包",
    "122": "一台",
    "123": "一定",
    "124": "一支",
    "125": "一杯",
    "126": "一樣",
    "127": "一次",
    "128": "一款",
    "129": "一步",
    "130": "一段",
    "131": "一注",
    "132": "一種",
    "133": "一致",
    "134": "一致性",
    "135": "一般",
    "136": "一起",
    "137": "一道",
    "138": "一開始",
    "139": "一點",
    "140": "七",
    "141": "三",
    "142": "三大",
    "143": "三次",
    "144": "三段式",
    "145": "上",
    "146": "上下",
    "147": "上升",
    "148": "上壺",
    "149": "上層",
    "150": "下",
    "151": "下壺",
    "152": "下層",
    "153": "下方",
    "154": "下次",
    "155": "下降",
    "156": "下面",
    "157": "不",
    "158": "不佳",
    "159": "不僅",
    "160": "不再",
    "161": "不出",
    "162": "不可",
    "163": "不可或缺",
    "164": "不同",
    "165": "不均",
    "166": "不失",
    "167": "不如",
    "168": "不妨",
    "169": "不少",
    "170": "不建議",
    "171": "不斷",
    "172": "不易",
    "173": "不是",
    "174": "不會",
    "175": "不用",
    "176": "不知",
    "177": "不要",
    "178": "不論",
    "179": "不足",
    "180": "不過",
    "181": "不錯",
    "182": "不間",
    "183": "不需",
    "184": "且",
    "185": "世界",
    "186": "並",
    "187": "並且",
    "188": "並在",
    "189": "並均",
    "190": "並將",
    "191": "並減",
    "192": "並非",
    "193": "中",
    "194": "中南美洲",
    "195": "中央",
    "196": "中後段",
    "197": "中心",
    "198": "中段",
    "199": "中焙",
    "200": "中等",
    "201": "中細",
    "202": "中間",
    "203": "主要",
    "204": "之",
    "205": "之一",
    "206": "之前",
    "207": "之外",
    "208": "之間",
    "209": "也",
    "210": "乾淨",
    "211": "乾燥",
    "212": "了",
    "213": "了解",
    "214": "事先",
    "215": "事實",
    "216": "二",
    "217": "二氧化碳",
    "218": "五",
    "219": "亦",
    "220": "享受",
    "221": "享用",
    "222": "人",
    "223": "人來",
    "224": "什麼",
    "225": "今天",
    "226": "介紹",
    "227": "他",
    "228": "代表",
    "229": "令人",
    "230": "以",
    "231": "以上",
    "232": "以下",
    "233": "以免",
    "234": "以及",
    "235": "以外",
    "236": "以點",
    "237": "任何",
    "238": "任何人",
    "239": "似",
    "240": "但",
    "241": "但是",
    "242": "佈",
    "243": "低",
    "244": "低溫",
    "245": "作",
    "246": "作出",
    "247": "作為",
    "248": "作用",
    "249": "你",
    "250": "使",
    "251": "使用",
    "252": "使用者",
    "253": "來",
    "254": "來源",
    "255": "例如",
    "256": "供",
    "257": "依",
    "258": "依據",
    "259": "依照",
    "260": "便",
    "261": "便利性",
    "262": "便宜",
    "263": "係",
    "264": "保",
    "265": "保存",
    "266": "保持",
    "267": "保水",
    "268": "保溫",
    "269": "保留",
    "270": "個",
    "271": "倍",
    "272": "倒",
    "273": "倒入",
    "274": "倒掉",
    "275": "倒水",
    "276": "值得",
    "277": "偏",
    "278": "偏好",
    "279": "偏細",
    "280": "偏酸",
    "281": "做",
    "282": "做出",
    "283": "做法",
    "284": "停止",
    "285": "健康",
    "286": "傳統",
    "287": "傾斜",
    "288": "僅需",
    "289": "像",
    "290": "像是",
    "291": "價格",
    "292": "儀式",
    "293": "儘",
    "294": "優勢",
    "295": "優缺點",
    "296": "優質",
    "297": "優點",
    "298": "元",
    "299": "充分",
    "300": "充滿",
    "301": "先",
    "302": "先將",
    "303": "先用熱",
    "304": "克",
    "305": "克杯",
    "306": "克熱水",
    "307": "入",
    "308": "入坑",
    "309": "入門",
    "310": "內",
    "311": "內容",
    "312": "全",
    "313": "全球",
    "314": "全部",
    "315": "兩個",
    "316": "兩倍",
    "317": "兩次",
    "318": "兩種",
    "319": "兩者",
    "320": "公升",
    "321": "公室",
    "322": "六",
    "323": "六種",
    "324": "共",
    "325": "其",
    "326": "其中",
    "327": "其他",
    "328": "其實",
    "329": "具備",
    "330": "具有",
    "331": "具體",
    "332": "兼具",
    "333": "再",
    "334": "再來",
    "335": "再次",
    "336": "再繞",
    "337": "冠",
    "338": "冰",
    "339": "冰水",
    "340": "冰滴",
    "341": "冷",
    "342": "冷水",
    "343": "冷萃",
    "344": "冷藏",
    "345": "凸顯",
    "346": "出",
    "347": "出來",
    "348": "出口",
    "349": "出屬",
    "350": "出水量",
    "351": "出現",
    "352": "出類",
    "353": "出風味",
    "354": "分",
    "355": "分享",
    "356": "分子",
    "357": "分成",
    "358": "分明",
    "359": "分析",
    "360": "分次",
    "361": "分為",
    "362": "分鐘",
    "363": "分離",
    "364": "初學者",
    "365": "判斷",
    "366": "別",
    "367": "利用",
    "368": "到",
    "369": "到底",
    "370": "刺激",
    "371": "刻度",
    "372": "刻意",
    "373": "則",
    "374": "則會",
    "375": "則能",
    "376": "前",
    "377": "前段",
    "378": "剛",
    "379": "剛好",
    "380": "剩下",
    "381": "創造",
    "382": "功能",
    "383": "加",
    "384": "加上",
    "385": "加入",
    "386": "加壓",
    "387": "加水",
    "388": "加熱",
    "389": "加熱產生",
    "390": "加速",
    "391": "助您",
    "392": "動作",
    "393": "勻",
    "394": "勻度",
    "395": "包",
    "396": "包含",
    "397": "包括",
    "398": "包裝",
    "399": "化",
    "400": "化合物",
    "401": "化學",
    "402": "區別",
    "403": "區域",
    "404": "十分",
    "405": "十大",
    "406": "卡",
    "407": "卡布",
    "408": "即",
    "409": "即可",
    "410": "卻",
    "411": "厚實",
    "412": "厚度",
    "413": "厚重",
    "414": "原則",
    "415": "原味",
    "416": "原始",
    "417": "原料",
    "418": "原有",
    "419": "原理",
    "420": "去",
    "421": "去除",
    "422": "參數",
    "423": "參考",
    "424": "又",
    "425": "及",
    "426": "友善",
    "427": "反之",
    "428": "取代",
    "429": "取決",
    "430": "受保護",
    "431": "受到",
    "432": "受熱",
    "433": "口味",
    "434": "口徑",
    "435": "口感",
    "436": "另",
    "437": "另外",
    "438": "只",
    "439": "只是",
    "440": "只能",
    "441": "只要",
    "442": "可",
    "443": "可以",
    "444": "可控性",
    "445": "可用",
    "446": "可能",
    "447": "可選",
    "448": "台灣",
    "449": "各種",
    "450": "各自",
    "451": "合用",
    "452": "合適",
    "453": "同",
    "454": "同一",
    "455": "同時",
    "456": "同樣",
    "457": "向",
    "458": "吧",
    "459": "含量",
    "460": "吸回",
    "461": "吸收",
    "462": "吸水",
    "463": "呈",
    "464": "呈現",
    "465": "告訴",
    "466": "呢",
    "467": "味",
    "468": "味道",
    "469": "和",
    "470": "咖啡",
    "471": "咖啡因",
    "472": "咖啡店",
    "473": "咖啡杯",
    "474": "咖啡粉",
    "475": "咖啡豆",
    "476": "品嚐",
    "477": "品牌",
    "478": "品種",
    "479": "品質",
    "480": "品鑑",
    "481": "品飲",
    "482": "哈本",
    "483": "哪",
    "484": "哪些",
    "485": "商業級",
    "486": "問題",
    "487": "啤酒",
    "488": "喔",
    "489": "喜",
    "490": "喜好",
    "491": "喜愛的",
    "492": "喜歡",
    "493": "喝",
    "494": "喝一杯",
    "495": "喝咖啡",
    "496": "喝法",
    "497": "喝起",
    "498": "單品",
    "499": "單純",
    "500": "嗎",
    "501": "嘗試",
    "502": "器具",
    "503": "器材",
    "504": "囉",
    "505": "四",
    "506": "四六",
    "507": "回",
    "508": "回來",
    "509": "回到",
    "510": "因",
    "511": "因此",
    "512": "因為",
    "513": "因素",
    "514": "因而",
    "515": "固定",
    "516": "圈",
    "517": "圓心",
    "518": "圓潤",
    "519": "土耳其",
    "520": "在",
    "521": "在家",
    "522": "地",
    "523": "地將",
    "524": "地方",
    "525": "均",
    "526": "均勻",
    "527": "均衡",
    "528": "垂直",
    "529": "基底",
    "530": "基本",
    "531": "基本上",
    "532": "基礎",
    "533": "堅果",
    "534": "塊",
    "535": "塌陷",
    "536": "塑膠",
    "537": "增加",
    "538": "增添",
    "539": "壁",
    "540": "壓力",
    "541": "壓壺",
    "542": "壺",
    "543": "壺中",
    "544": "壺嘴",
    "545": "壺或",
    "546": "壺的",
    "547": "壺身",
    "548": "夏季",
    "549": "外出",
    "550": "外層",
    "551": "外畫",
    "552": "外繞",
    "553": "多",
    "554": "多少",
    "555": "多樣",
    "556": "多次",
    "557": "多段",
    "558": "多種",
    "559": "多變",
    "560": "大",
    "561": "大公",
    "562": "大分子",
    "563": "大利",
    "564": "大多",
    "565": "大家",
    "566": "大小",
    "567": "大幅",
    "568": "大約",
    "569": "大部分",
    "570": "大量",
    "571": "太",
    "572": "太久",
    "573": "太淡",
    "574": "太濃",
    "575": "太粗",
    "576": "太細",
    "577": "太苦",
    "578": "太酸",
    "579": "太重",
    "580": "失敗",
    "581": "奇諾",
    "582": "好",
    "583": "好喝",
    "584": "好處",
    "585": "如",
    "586": "如下",
    "587": "如何",
    "588": "如果",
    "589": "如此",
    "590": "孔洞",
    "591": "字形",
    "592": "學習",
    "593": "它",
    "594": "它們",
    "595": "完",
    "596": "完全",
    "597": "完成",
    "598": "完整",
    "599": "完畢",
    "600": "完美",
    "601": "定性",
    "602": "定期",
    "603": "家中",
    "604": "家庭",
    "605": "容器",
    "606": "容易",
    "607": "容量",
    "608": "密度",
    "609": "實",
    "610": "實惠",
    "611": "實用",
    "612": "實踐",
    "613": "實際",
    "614": "實驗",
    "615": "將",
    "616": "將介紹",
    "617": "將影響",
    "618": "將水",
    "619": "將濾杯",
    "620": "將濾紙",
    "621": "將熱水",
    "622": "將粉",
    "623": "將裝",
    "624": "專屬",
    "625": "專業",
    "626": "專為",
    "627": "專用",
    "628": "對",
    "629": "對象",
    "630": "導致",
    "631": "小",
    "632": "小巧",
    "633": "小時",
    "634": "少",
    "635": "少量",
    "636": "尤其",
    "637": "就",
    "638": "就是",
    "639": "就會",
    "640": "尺寸",
    "641": "尾韻",
    "642": "局部",
    "643": "居家",
    "644": "展現",
    "645": "層",
    "646": "層次",
    "647": "屬",
    "648": "工作",
    "649": "工具",
    "650": "左右",
    "651": "巧克力",
    "652": "差",
    "653": "差異",
    "654": "已",
    "655": "已經",
    "656": "市售",
    "657": "市面上",
    "658": "希望",
    "659": "師",
    "660": "帶",
    "661": "帶來",
    "662": "帶出",
    "663": "帶有",
    "664": "常用",
    "665": "常見",
    "666": "幫",
    "667": "幫助",
    "668": "干擾",
    "669": "平均",
    "670": "平坦",
    "671": "平整",
    "672": "平整度",
    "673": "平衡",
    "674": "年",
    "675": "幾下",
    "676": "幾乎",
    "677": "幾個",
    "678": "幾種",
    "679": "床",
    "680": "底部",
    "681": "度",
    "682": "度之間",
    "683": "度越",
    "684": "延伸",
    "685": "延長",
    "686": "建立",
    "687": "建議",
    "688": "式",
    "689": "強烈",
    "690": "形成",
    "691": "形濾杯",
    "692": "形狀",
    "693": "影片",
    "694": "影響",
    "695": "影響力",
    "696": "待",
    "697": "很",
    "698": "很多",
    "699": "很大",
    "700": "後",
    "701": "得",
    "702": "得到",
    "703": "從",
    "704": "復",
    "705": "微小",
    "706": "微調",
    "707": "徹底",
    "708": "心情",
    "709": "必備",
    "710": "必須",
    "711": "忙碌",
    "712": "快",
    "713": "快速",
    "714": "怎麼",
    "715": "怎麼樣",
    "716": "性",
    "717": "悠久",
    "718": "您",
    "719": "悶蒸",
    "720": "情況",
    "721": "想",
    "722": "想要",
    "723": "愛",
    "724": "愛好者",
    "725": "愛樂壓",
    "726": "感",
    "727": "感受",
    "728": "感官",
    "729": "感覺",
    "730": "慢慢",
    "731": "慢速",
    "732": "懂",
    "733": "應該",
    "734": "成",
    "735": "成分",
    "736": "成本",
    "737": "成為",
    "738": "我",
    "739": "我們",
    "740": "或",
    "741": "或是",
    "742": "或者",
    "743": "戶外",
    "744": "所",
    "745": "所以",
    "746": "所有",
    "747": "手",
    "748": "手作",
    "749": "手動",
    "750": "手搖磨",
    "751": "手沖",
    "752": "手法",
    "753": "手衝",
    "754": "才",
    "755": "才能",
    "756": "打造",
    "757": "打開",
    "758": "找到",
    "759": "技巧",
    "760": "技法",
    "761": "技術",
    "762": "把",
    "763": "抓",
    "764": "拆解",
    "765": "拉長",
    "766": "拌",
    "767": "拿",
    "768": "拿到",
    "769": "持續",
    "770": "指",
    "771": "指南",
    "772": "按",
    "773": "挑",
    "774": "挑戰",
    "775": "挑選",
    "776": "掉",
    "777": "掌控",
    "778": "掌握",
    "779": "排出",
    "780": "排除",
    "781": "採用",
    "782": "接下",
    "783": "接合",
    "784": "接著",
    "785": "接觸",
    "786": "接近",
    "787": "控制",
    "788": "推出",
    "789": "推薦",
    "790": "推過",
    "791": "描述",
    "792": "提供",
    "793": "提升",
    "794": "提取",
    "795": "提高",
    "796": "搖晃",
    "797": "搭配",
    "798": "摩卡",
    "799": "擁有",
    "800": "操作",
    "801": "擔心",
    "802": "擴散",
    "803": "擾動",
    "804": "攜帶",
    "805": "攝氏",
    "806": "攪",
    "807": "攪拌",
    "808": "收尾",
    "809": "改以",
    "810": "改用",
    "811": "改變",
    "812": "放",
    "813": "放上",
    "814": "放入",
    "815": "放出",
    "816": "放在",
    "817": "放大",
    "818": "放慢",
    "819": "放置",
    "820": "效應",
    "821": "效果",
    "822": "效率",
    "823": "敘述",
    "824": "教",
    "825": "教學",
    "826": "整個",
    "827": "整理",
    "828": "整體",
    "829": "數位",
    "830": "數值",
    "831": "數據",
    "832": "文化",
    "833": "文章",
    "834": "斯塔",
    "835": "新",
    "836": "新手",
    "837": "新鮮",
    "838": "斷",
    "839": "斷水",
    "840": "方便",
    "841": "方向",
    "842": "方式",
    "843": "方案",
    "844": "方法",
    "845": "於",
    "846": "旅程",
    "847": "旅行",
    "848": "日常",
    "849": "日曬",
    "850": "日期",
    "851": "日本",
    "852": "早晨",
    "853": "明亮",
    "854": "明顯",
    "855": "是",
    "856": "是否",
    "857": "是將",
    "858": "時",
    "859": "時候",
    "860": "時光",
    "861": "時會",
    "862": "時機",
    "863": "時要",
    "864": "時長",
    "865": "時間",
    "866": "更",
    "867": "更加",
    "868": "更多",
    "869": "更好",
    "870": "更是",
    "871": "更能",
    "872": "最",
    "873": "最佳",
    "874": "最先",
    "875": "最大",
    "876": "最好",
    "877": "最小",
    "878": "最常見",
    "879": "最新",
    "880": "最終",
    "881": "最近",
    "882": "最高",
    "883": "會",
    "884": "會導致",
    "885": "會帶",
    "886": "會有",
    "887": "月",
    "888": "有",
    "889": "有些",
    "890": "有人",
    "891": "有什麼",
    "892": "有何",
    "893": "有助",
    "894": "有所",
    "895": "有所不同",
    "896": "有效",
    "897": "有興趣",
    "898": "有點",
    "899": "朋友",
    "900": "服貼",
    "901": "未",
    "902": "本文",
    "903": "本身",
    "904": "材質",
    "905": "杯",
    "906": "杯中",
    "907": "杯口",
    "908": "杯子",
    "909": "杯底",
    "910": "杯測",
    "911": "林桑",
    "912": "果酸",
    "913": "柔和",
    "914": "柱塞",
    "915": "核心",
    "916": "根據",
    "917": "根據個",
    "918": "桌上",
    "919": "梯形",
    "920": "棒",
    "921": "極其",
    "922": "極客",
    "923": "極短",
    "924": "極細",
    "925": "極致",
    "926": "極高",
    "927": "概念",
    "928": "榨出",
    "929": "槽",
    "930": "樂趣",
    "931": "標準",
    "932": "標示",
    "933": "機",
    "934": "機器",
    "935": "機型",
    "936": "機時",
    "937": "次",
    "938": "款式",
    "939": "歡迎",
    "940": "正是",
    "941": "此",
    "942": "此外",
    "943": "此時",
    "944": "此法",
    "945": "步驟",
    "946": "殘留",
    "947": "殘粉",
    "948": "段",
    "949": "每",
    "950": "每一種",
    "951": "每個",
    "952": "每杯",
    "953": "每次",
    "954": "每種",
    "955": "比",
    "956": "比亞",
    "957": "比例",
    "958": "比起",
    "959": "比較",
    "960": "氣味",
    "961": "氣體",
    "962": "水",
    "963": "水中",
    "964": "水位",
    "965": "水分",
    "966": "水壺",
    "967": "水柱",
    "968": "水比",
    "969": "水法",
    "970": "水洗",
    "971": "水流",
    "972": "水浸",
    "973": "水溫",
    "974": "水滴",
    "975": "水質",
    "976": "水量",
    "977": "水面",
    "978": "決定",
    "979": "沉",
    "980": "沒",
    "981": "沒有",
    "982": "沖",
    "983": "河野",
    "984": "沸水",
    "985": "油脂",
    "986": "法",
    "987": "法壓壺",
    "988": "法式",
    "989": "泡",
    "990": "泡水",
    "991": "泡沫",
    "992": "泡法",
    "993": "泡者",
    "994": "波",
    "995": "波浪",
    "996": "注",
    "997": "注入",
    "998": "注意",
    "999": "注水",
    "1000": "注水方式",
    "1001": "流下",
    "1002": "流出",
    "1003": "流派",
    "1004": "流程",
    "1005": "流行",
    "1006": "流速",
    "1007": "浪費",
    "1008": "浸泡",
    "1009": "浸潤",
    "1010": "浸濕",
    "1011": "浸濕濾紙",
    "1012": "消費者",
    "1013": "液",
    "1014": "液中",
    "1015": "液以",
    "1016": "液會",
    "1017": "液體",
    "1018": "淡",
    "1019": "淡薄",
    "1020": "深",
    "1021": "深入",
    "1022": "深焙",
    "1023": "混",
    "1024": "混合",
    "1025": "混合式",
    "1026": "淺培",
    "1027": "淺焙",
    "1028": "添加",
    "1029": "清晰",
    "1030": "清楚",
    "1031": "清水",
    "1032": "清洗",
    "1033": "清淡",
    "1034": "清潔",
    "1035": "清爽",
    "1036": "減少",
    "1037": "渣",
    "1038": "測法",
    "1039": "測試",
    "1040": "測量",
    "1041": "湯匙",
    "1042": "源自",
    "1043": "準備",
    "1044": "準確",
    "1045": "溫",
    "1046": "溫度",
    "1047": "溫度計",
    "1048": "溫柔",
    "1049": "溶",
    "1050": "溶出",
    "1051": "溶解",
    "1052": "滑順",
    "1053": "滲濾",
    "1054": "滲透",
    "1055": "滴",
    "1056": "滴入",
    "1057": "滴出",
    "1058": "滴濾",
    "1059": "滴濾式",
    "1060": "滾",
    "1061": "滿",
    "1062": "漂白",
    "1063": "澆",
    "1064": "澱",
    "1065": "濃",
    "1066": "濃厚",
    "1067": "濃度",
    "1068": "濃淡",
    "1069": "濃烈",
    "1070": "濃縮",
    "1071": "濃縮液",
    "1072": "濃郁",
    "1073": "濕",
    "1074": "濕潤",
    "1075": "濾",
    "1076": "濾器",
    "1077": "濾壓壺",
    "1078": "濾布",
    "1079": "濾掛",
    "1080": "濾掛式",
    "1081": "濾杯",
    "1082": "濾杯裡",
    "1083": "濾水壺",
    "1084": "濾泡式",
    "1085": "濾紙",
    "1086": "濾網",
    "1087": "濾蓋",
    "1088": "火源",
    "1089": "為",
    "1090": "為主",
    "1091": "為何",
    "1092": "烘焙",
    "1093": "烘豆",
    "1094": "無",
    "1095": "無法",
    "1096": "無論",
    "1097": "無需",
    "1098": "焦",
    "1099": "焦糖",
    "1100": "焦苦",
    "1101": "然",
    "1102": "然後將",
    "1103": "然而",
    "1104": "煙",
    "1105": "煮",
    "1106": "煮水",
    "1107": "煮沸",
    "1108": "煮法",
    "1109": "熱",
    "1110": "熱水",
    "1111": "熱水並",
    "1112": "熱的",
    "1113": "熱萃",
    "1114": "熱質",
    "1115": "燻",
    "1116": "爐",
    "1117": "牛奶",
    "1118": "物",
    "1119": "物品",
    "1120": "物理",
    "1121": "物質",
    "1122": "特別",
    "1123": "特性",
    "1124": "特殊",
    "1125": "特色",
    "1126": "特點",
    "1127": "狀",
    "1128": "狀態",
    "1129": "狀況",
    "1130": "獨一無二",
    "1131": "獨家",
    "1132": "獨特",
    "1133": "獨特風味",
    "1134": "獲得",
    "1135": "玩家",
    "1136": "玻璃",
    "1137": "現出",
    "1138": "現磨",
    "1139": "現象",
    "1140": "理想",
    "1141": "理法",
    "1142": "理解",
    "1143": "環保",
    "1144": "環境",
    "1145": "瓶",
    "1146": "甚至",
    "1147": "甜",
    "1148": "甜味",
    "1149": "甜感",
    "1150": "生活",
    "1151": "產區",
    "1152": "產品",
    "1153": "產地",
    "1154": "產生",
    "1155": "用",
    "1156": "用來",
    "1157": "用途",
    "1158": "由",
    "1159": "留下",
    "1160": "留意",
    "1161": "畫圈",
    "1162": "畫圓",
    "1163": "異味",
    "1164": "當",
    "1165": "當作",
    "1166": "當我們",
    "1167": "當然",
    "1168": "發展",
    "1169": "發明",
    "1170": "發現",
    "1171": "發酵",
    "1172": "白色",
    "1173": "的",
    "1174": "皆",
    "1175": "盛裝",
    "1176": "盡",
    "1177": "目前",
    "1178": "目的",
    "1179": "直到",
    "1180": "直接",
    "1181": "直觀",
    "1182": "相",
    "1183": "相似",
    "1184": "相信",
    "1185": "相反",
    "1186": "相同",
    "1187": "相對",
    "1188": "相比",
    "1189": "相當",
    "1190": "相較",
    "1191": "看",
    "1192": "看到",
    "1193": "看看",
    "1194": "真正",
    "1195": "真空",
    "1196": "瞬間",
    "1197": "知識",
    "1198": "知道",
    "1199": "短",
    "1200": "砂糖",
    "1201": "研磨",
    "1202": "砸",
    "1203": "硬度",
    "1204": "硬水",
    "1205": "確保",
    "1206": "確定",
    "1207": "磨",
    "1208": "磨得",
    "1209": "磨成",
    "1210": "磨豆",
    "1211": "磨豆機",
    "1212": "礦物質",
    "1213": "科學",
    "1214": "秒",
    "1215": "秒左右",
    "1216": "秤",
    "1217": "移開",
    "1218": "移除",
    "1219": "稀釋",
    "1220": "程",
    "1221": "程度",
    "1222": "稍微",
    "1223": "種",
    "1224": "種常見",
    "1225": "種類",
    "1226": "稱",
    "1227": "積",
    "1228": "穩",
    "1229": "穩定",
    "1230": "穩定度",
    "1231": "究竟",
    "1232": "空氣",
    "1233": "空間",
    "1234": "空隙",
    "1235": "穿過",
    "1236": "立刻",
    "1237": "笑",
    "1238": "符合",
    "1239": "第",
    "1240": "第一次",
    "1241": "第三",
    "1242": "第二",
    "1243": "第二次",
    "1244": "等",
    "1245": "等到",
    "1246": "等待",
    "1247": "等級",
    "1248": "管",
    "1249": "節奏",
    "1250": "範圍",
    "1251": "篩出",
    "1252": "簡單",
    "1253": "簡易",
    "1254": "簡稱",
    "1255": "粉",
    "1256": "粉層",
    "1257": "粉床",
    "1258": "粉末",
    "1259": "粉水",
    "1260": "粉量",
    "1261": "粕",
    "1262": "粗",
    "1263": "粗細",
    "1264": "精",
    "1265": "精品",
    "1266": "精品咖啡",
    "1267": "精準",
    "1268": "精準度",
    "1269": "精確",
    "1270": "精細",
    "1271": "精華",
    "1272": "約",
    "1273": "純",
    "1274": "純水",
    "1275": "純粹",
    "1276": "紙味",
    "1277": "紙漿",
    "1278": "累積",
    "1279": "細",
    "1280": "細小",
    "1281": "細節",
    "1282": "細粉",
    "1283": "細膩",
    "1284": "組",
    "1285": "組合",
    "1286": "組成",
    "1287": "結合",
    "1288": "結束",
    "1289": "結果",
    "1290": "結構",
    "1291": "絕對",
    "1292": "經典",
    "1293": "經常",
    "1294": "經濟",
    "1295": "經過",
    "1296": "經驗",
    "1297": "維持",
    "1298": "緊實",
    "1299": "緩慢",
    "1300": "緩衝",
    "1301": "練習",
    "1302": "緻",
    "1303": "縮",
    "1304": "總",
    "1305": "總注",
    "1306": "繞圈",
    "1307": "繼續",
    "1308": "續",
    "1309": "纖維",
    "1310": "缺乏",
    "1311": "缺點",
    "1312": "美味",
    "1313": "美好",
    "1314": "美式",
    "1315": "義",
    "1316": "義式",
    "1317": "習慣",
    "1318": "考慮",
    "1319": "考量",
    "1320": "者",
    "1321": "而",
    "1322": "而且",
    "1323": "而定",
    "1324": "而是",
    "1325": "而言",
    "1326": "耐心",
    "1327": "耶加雪菲",
    "1328": "聰明",
    "1329": "胃",
    "1330": "能",
    "1331": "能夠",
    "1332": "膠囊",
    "1333": "膨脹",
    "1334": "自",
    "1335": "自來",
    "1336": "自己",
    "1337": "自然",
    "1338": "自由",
    "1339": "自行",
    "1340": "至",
    "1341": "與",
    "1342": "良好",
    "1343": "花",
    "1344": "花果",
    "1345": "花開",
    "1346": "花香",
    "1347": "芳香",
    "1348": "若",
    "1349": "若想",
    "1350": "苦",
    "1351": "苦味",
    "1352": "苦澀",
    "1353": "茶",
    "1354": "萃取",
    "1355": "萃取率",
    "1356": "落",
    "1357": "著",
    "1358": "蒸氣",
    "1359": "蒸汽",
    "1360": "蓋",
    "1361": "藉此",
    "1362": "藉由",
    "1363": "處",
    "1364": "處理",
    "1365": "虹吸",
    "1366": "虹吸式",
    "1367": "融合",
    "1368": "螺旋",
    "1369": "衣索",
    "1370": "表格",
    "1371": "表現",
    "1372": "表面",
    "1373": "被",
    "1374": "補充",
    "1375": "裝好",
    "1376": "裡的",
    "1377": "裡面",
    "1378": "製",
    "1379": "複",
    "1380": "褐色",
    "1381": "要",
    "1382": "要點",
    "1383": "見",
    "1384": "視為",
    "1385": "親",
    "1386": "覺得",
    "1387": "觀察",
    "1388": "角度",
    "1389": "解救",
    "1390": "解析",
    "1391": "解決",
    "1392": "計時",
    "1393": "計時器",
    "1394": "討論",
    "1395": "訓練",
    "1396": "記住",
    "1397": "記得",
    "1398": "記錄",
    "1399": "設備",
    "1400": "設定",
    "1401": "設計",
    "1402": "許多",
    "1403": "許多人",
    "1404": "註",
    "1405": "試試",
    "1406": "話",
    "1407": "該",
    "1408": "詳細",
    "1409": "認為",
    "1410": "認識",
    "1411": "語言",
    "1412": "說",
    "1413": "說明",
    "1414": "誰",
    "1415": "課",
    "1416": "調",
    "1417": "調整",
    "1418": "調節",
    "1419": "調細",
    "1420": "調配",
    "1421": "請",
    "1422": "講究",
    "1423": "變",
    "1424": "變化",
    "1425": "變因",
    "1426": "變得",
    "1427": "變成",
    "1428": "變數",
    "1429": "變苦",
    "1430": "讓",
    "1431": "谷哲",
    "1432": "豆",
    "1433": "豆子",
    "1434": "豆機",
    "1435": "豆種",
    "1436": "豆粉",
    "1437": "豐富",
    "1438": "負責",
    "1439": "買",
    "1440": "質地",
    "1441": "質量",
    "1442": "購買",
    "1443": "走",
    "1444": "起",
    "1445": "起來",
    "1446": "起始",
    "1447": "超過",
    "1448": "越",
    "1449": "越來",
    "1450": "越濃",
    "1451": "越長",
    "1452": "趣味",
    "1453": "趨勢",
    "1454": "足夠",
    "1455": "跟",
    "1456": "軍",
    "1457": "較",
    "1458": "較少",
    "1459": "較淡",
    "1460": "較長",
    "1461": "輕",
    "1462": "輕拍",
    "1463": "輕輕",
    "1464": "辦",
    "1465": "迅速",
    "1466": "近年",
    "1467": "迫使",
    "1468": "迷人",
    "1469": "追求",
    "1470": "透明",
    "1471": "透過",
    "1472": "逐漸",
    "1473": "這",
    "1474": "這也",
    "1475": "這些",
    "1476": "這個",
    "1477": "這招",
    "1478": "這是",
    "1479": "這樣",
    "1480": "這次",
    "1481": "這種",
    "1482": "這篇",
    "1483": "這能",
    "1484": "這裡",
    "1485": "通常",
    "1486": "通過",
    "1487": "通道",
    "1488": "速度",
    "1489": "造",
    "1490": "造就",
    "1491": "造成",
    "1492": "連續",
    "1493": "進入",
    "1494": "進而",
    "1495": "進行",
    "1496": "遇到",
    "1497": "運動",
    "1498": "運用",
    "1499": "過",
    "1500": "過多",
    "1501": "過度",
    "1502": "過快",
    "1503": "過慢",
    "1504": "過濾",
    "1505": "過濾器",
    "1506": "過濾式",
    "1507": "過短",
    "1508": "過程",
    "1509": "過細",
    "1510": "過長",
    "1511": "達",
    "1512": "達到",
    "1513": "適",
    "1514": "適中",
    "1515": "適合",
    "1516": "適度",
    "1517": "適當",
    "1518": "適量",
    "1519": "選",
    "1520": "選擇",
    "1521": "選用",
    "1522": "選豆",
    "1523": "選購",
    "1524": "避免",
    "1525": "還",
    "1526": "還是",
    "1527": "還有",
    "1528": "還能",
    "1529": "邊緣",
    "1530": "那",
    "1531": "那麼",
    "1532": "部分",
    "1533": "部落",
    "1534": "都",
    "1535": "配方",
    "1536": "酸",
    "1537": "酸值",
    "1538": "酸味",
    "1539": "酸度",
    "1540": "酸感",
    "1541": "酸甜",
    "1542": "酸質",
    "1543": "醇厚",
    "1544": "釀造",
    "1545": "釋",
    "1546": "釋出",
    "1547": "釋放",
    "1548": "重",
    "1549": "重力",
    "1550": "重現",
    "1551": "重要",
    "1552": "重視",
    "1553": "重量",
    "1554": "重點",
    "1555": "量",
    "1556": "量杯",
    "1557": "金",
    "1558": "金屬",
    "1559": "金澤式",
    "1560": "鈣",
    "1561": "鋪",
    "1562": "鋼",
    "1563": "錐",
    "1564": "錐形",
    "1565": "錯誤",
    "1566": "鎂",
    "1567": "鏽",
    "1568": "鐵",
    "1569": "長",
    "1570": "開",
    "1571": "開啟",
    "1572": "開始",
    "1573": "開階段",
    "1574": "間",
    "1575": "閥門",
    "1576": "閱讀",
    "1577": "關於",
    "1578": "關鍵",
    "1579": "阻力",
    "1580": "阿拉比",
    "1581": "降低",
    "1582": "降溫",
    "1583": "除了",
    "1584": "陶瓷",
    "1585": "階段",
    "1586": "隔",
    "1587": "隨地",
    "1588": "隨時",
    "1589": "隨身",
    "1590": "集中",
    "1591": "雖然",
    "1592": "雜",
    "1593": "雜味",
    "1594": "雜質",
    "1595": "離",
    "1596": "離子",
    "1597": "難",
    "1598": "難度",
    "1599": "電動",
    "1600": "電子",
    "1601": "需",
    "1602": "需求",
    "1603": "需注意",
    "1604": "需要",
    "1605": "露營",
    "1606": "靜置",
    "1607": "非常",
    "1608": "非洲",
    "1609": "面積",
    "1610": "革新",
    "1611": "頂部",
    "1612": "順位",
    "1613": "順口",
    "1614": "順時針",
    "1615": "預先",
    "1616": "預熱",
    "1617": "預計",
    "1618": "預設",
    "1619": "顆粒",
    "1620": "類似",
    "1621": "類型",
    "1622": "顯示",
    "1623": "風",
    "1624": "風味",
    "1625": "風味層",
    "1626": "風味物質",
    "1627": "風味表現",
    "1628": "風格",
    "1629": "食材",
    "1630": "飲品",
    "1631": "飲用",
    "1632": "飲用者",
    "1633": "飽",
    "1634": "飽滿",
    "1635": "館",
    "1636": "首先",
    "1637": "首選",
    "1638": "香",
    "1639": "香味",
    "1640": "香氣",
    "1641": "香醇",
    "1642": "馬",
    "1643": "驟",
    "1644": "體積",
    "1645": "體驗",
    "1646": "高",
    "1647": "高低",
    "1648": "高品質",
    "1649": "高壓",
    "1650": "高度",
    "1651": "高溫",
    "1652": "鬆",
    "1653": "魅力",
    "1654": "鮮度",
    "1655": "鹼度",
    "1656": "鹽",
    "1657": "黃",
    "1658": "點我",
    "1659": "點滴",
    "1660": "點滴式",
    "1661": "點滴法",
    "1662": "！",
    "1663": "％",
    "1664": "（",
    "1665": "）",
    "1666": "，",
    "1667": "－",
    "1668": "／",
    "1669": "：",
    "1670": "；",
    "1671": "＞",
    "1672": "？",
    "1673": "｜",
    "1674": "～",
    "0": "<UNK>"
  }
}